{
  "version": "1.0",
  "truncation": null,
  "padding": null,
  "added_tokens": [
    {
      "id": 0,
      "content": "<|begin_of_text|>",
      "single_word": false,
      "lstrip": false,
      "rstrip": false,
      "normalized": false,
      "special": true
    },
    {
      "id": 1,
      "content": "<|end_of_text|>",
      "single_word": false,
      "lstrip": false,
      "rstrip": false,
      "normalized": false,
      "special": true
    },
    {
      "id": 2,
      "content": "<|reserved_special_token_0|>",
      "single_word": false,
      "lstrip": false,
      "rstrip": false,
      "normalized": false,
      "special": true
    },
    {
      "id": 3,
      "content": "<|reserved_special_token_1|>",
      "single_word": false,
      "lstrip": false,
      "rstrip": false,
      "normalized": false,
      "special": true
    },
    {
      "id": 4,
      "content": "<|reserved_special_token_2|>",
      "single_word": false,
      "lstrip": false,
      "rstrip": false,
      "normalized": false,
      "special": true
    },
    {
      "id": 5,
      "content": "<|reserved_special_token_3|>",
      "single_word": false,
      "lstrip": false,
      "rstrip": false,
      "normalized": false,
      "special": true
    },
    {
      "id": 6,
      "content": "<|start_header_id|>",
      "single_word": false,
      "lstrip": false,
      "rstrip": false,
      "normalized": false,
      "special": true
    },
    {
      "id": 7,
      "content": "<|end_header_id|>",
      "single_word": false,
      "lstrip": false,
      "rstrip": false,
      "normalized": false,
      "special": true
    },
    {
      "id": 8,
      "content": "<|reserved_special_token_4|>",
      "single_word": false,
      "lstrip": false,
      "rstrip": false,
      "normalized": false,
      "special": true
    },
    {
      "id": 9,
      "content": "<|eot_id|>",
      "single_word": false,
      "lstrip": false,
      "rstrip": false,
      "normalized": false,
      "special": true
    },
    {
      "id": 10,
      "content": "<|reserved_special_token_5|>",
      "single_word": false,
      "lstrip": false,
      "rstrip": false,
      "normalized": false,
      "special": true
    },
    {
      "id": 11,
      "content": "<|reserved_special_token_6|>",
      "single_word": false,
      "lstrip": false,
      "rstrip": false,
      "normalized": false,
      "special": true
    },
    {
      "id": 12,
      "content": "<|reserved_special_token_7|>",
      "single_word": false,
      "lstrip": false,
      "rstrip": false,
      "normalized": false,
      "special": true
    },
    {
      "id": 13,
      "content": "<|reserved_special_token_8|>",
      "single_word": false,
      "lstrip": false,
      "rstrip": false,
      "normalized": false,
      "special": true
    },
    {
      "id": 14,
      "content": "<|reserved_special_token_9|>",
      "single_word": false,
      "lstrip": false,
      "rstrip": false,
      "normalized": false,
      "special": true
    },
    {
      "id": 15,
      "content": "<|reserved_special_token_10|>",
      "single_word": false,
      "lstrip": false,
      "rstrip": false,
      "normalized": false,
      "special": true
    },
    {
      "id": 16,
      "content": "<|reserved_special_token_11|>",
      "single_word": false,
      "lstrip": false,
      "rstrip": false,
      "normalized": false,
      "special": true
    },
    {
      "id": 17,
      "content": "<|reserved_special_token_12|>",
      "single_word": false,
      "lstrip": false,
      "rstrip": false,
      "normalized": false,
      "special": true
    },
    {
      "id": 18,
      "content": "<|reserved_special_token_13|>",
      "single_word": false,
      "lstrip": false,
      "rstrip": false,
      "normalized": false,
      "special": true
    },
    {
      "id": 19,
      "content": "<|reserved_special_token_14|>",
      "single_word": false,
      "lstrip": false,
      "rstrip": false,
      "normalized": false,
      "special": true
    },
    {
      "id": 20,
      "content": "<|reserved_special_token_15|>",
      "single_word": false,
      "lstrip": false,
      "rstrip": false,
      "normalized": false,
      "special": true
    },
    {
      "id": 21,
      "content": "<|reserved_special_token_16|>",
      "single_word": false,
      "lstrip": false,
      "rstrip": false,
      "normalized": false,
      "special": true
    },
    {
      "id": 22,
      "content": "<|reserved_special_token_17|>",
      "single_word": false,
      "lstrip": false,
      "rstrip": false,
      "normalized": false,
      "special": true
    },
    {
      "id": 23,
      "content": "<|reserved_special_token_18|>",
      "single_word": false,
      "lstrip": false,
      "rstrip": false,
      "normalized": false,
      "special": true
    },
    {
      "id": 24,
      "content": "<|reserved_special_token_19|>",
      "single_word": false,
      "lstrip": false,
      "rstrip": false,
      "normalized": false,
      "special": true
    },
    {
      "id": 25,
      "content": "<|reserved_special_token_20|>",
      "single_word": false,
      "lstrip": false,
      "rstrip": false,
      "normalized": false,
      "special": true
    },
    {
      "id": 26,
      "content": "<|reserved_special_token_21|>",
      "single_word": false,
      "lstrip": false,
      "rstrip": false,
      "normalized": false,
      "special": true
    },
    {
      "id": 27,
      "content": "<|reserved_special_token_22|>",
      "single_word": false,
      "lstrip": false,
      "rstrip": false,
      "normalized": false,
      "special": true
    },
    {
      "id": 28,
      "content": "<|reserved_special_token_23|>",
      "single_word": false,
      "lstrip": false,
      "rstrip": false,
      "normalized": false,
      "special": true
    },
    {
      "id": 29,
      "content": "<|reserved_special_token_24|>",
      "single_word": false,
      "lstrip": false,
      "rstrip": false,
      "normalized": false,
      "special": true
    },
    {
      "id": 30,
      "content": "<|reserved_special_token_25|>",
      "single_word": false,
      "lstrip": false,
      "rstrip": false,
      "normalized": false,
      "special": true
    },
    {
      "id": 31,
      "content": "<|reserved_special_token_26|>",
      "single_word": false,
      "lstrip": false,
      "rstrip": false,
      "normalized": false,
      "special": true
    },
    {
      "id": 32,
      "content": "<|reserved_special_token_27|>",
      "single_word": false,
      "lstrip": false,
      "rstrip": false,
      "normalized": false,
      "special": true
    },
    {
      "id": 33,
      "content": "<|reserved_special_token_28|>",
      "single_word": false,
      "lstrip": false,
      "rstrip": false,
      "normalized": false,
      "special": true
    },
    {
      "id": 34,
      "content": "<|reserved_special_token_29|>",
      "single_word": false,
      "lstrip": false,
      "rstrip": false,
      "normalized": false,
      "special": true
    },
    {
      "id": 35,
      "content": "<|reserved_special_token_30|>",
      "single_word": false,
      "lstrip": false,
      "rstrip": false,
      "normalized": false,
      "special": true
    },
    {
      "id": 36,
      "content": "<|reserved_special_token_31|>",
      "single_word": false,
      "lstrip": false,
      "rstrip": false,
      "normalized": false,
      "special": true
    },
    {
      "id": 37,
      "content": "<|reserved_special_token_32|>",
      "single_word": false,
      "lstrip": false,
      "rstrip": false,
      "normalized": false,
      "special": true
    },
    {
      "id": 38,
      "content": "<|reserved_special_token_33|>",
      "single_word": false,
      "lstrip": false,
      "rstrip": false,
      "normalized": false,
      "special": true
    },
    {
      "id": 39,
      "content": "<|reserved_special_token_34|>",
      "single_word": false,
      "lstrip": false,
      "rstrip": false,
      "normalized": false,
      "special": true
    },
    {
      "id": 40,
      "content": "<|reserved_special_token_35|>",
      "single_word": false,
      "lstrip": false,
      "rstrip": false,
      "normalized": false,
      "special": true
    },
    {
      "id": 41,
      "content": "<|reserved_special_token_36|>",
      "single_word": false,
      "lstrip": false,
      "rstrip": false,
      "normalized": false,
      "special": true
    },
    {
      "id": 42,
      "content": "<|reserved_special_token_37|>",
      "single_word": false,
      "lstrip": false,
      "rstrip": false,
      "normalized": false,
      "special": true
    },
    {
      "id": 43,
      "content": "<|reserved_special_token_38|>",
      "single_word": false,
      "lstrip": false,
      "rstrip": false,
      "normalized": false,
      "special": true
    },
    {
      "id": 44,
      "content": "<|reserved_special_token_39|>",
      "single_word": false,
      "lstrip": false,
      "rstrip": false,
      "normalized": false,
      "special": true
    },
    {
      "id": 45,
      "content": "<|reserved_special_token_40|>",
      "single_word": false,
      "lstrip": false,
      "rstrip": false,
      "normalized": false,
      "special": true
    },
    {
      "id": 46,
      "content": "<|reserved_special_token_41|>",
      "single_word": false,
      "lstrip": false,
      "rstrip": false,
      "normalized": false,
      "special": true
    },
    {
      "id": 47,
      "content": "<|reserved_special_token_42|>",
      "single_word": false,
      "lstrip": false,
      "rstrip": false,
      "normalized": false,
      "special": true
    },
    {
      "id": 48,
      "content": "<|reserved_special_token_43|>",
      "single_word": false,
      "lstrip": false,
      "rstrip": false,
      "normalized": false,
      "special": true
    },
    {
      "id": 49,
      "content": "<|reserved_special_token_44|>",
      "single_word": false,
      "lstrip": false,
      "rstrip": false,
      "normalized": false,
      "special": true
    },
    {
      "id": 50,
      "content": "<|reserved_special_token_45|>",
      "single_word": false,
      "lstrip": false,
      "rstrip": false,
      "normalized": false,
      "special": true
    },
    {
      "id": 51,
      "content": "<|reserved_special_token_46|>",
      "single_word": false,
      "lstrip": false,
      "rstrip": false,
      "normalized": false,
      "special": true
    },
    {
      "id": 52,
      "content": "<|reserved_special_token_47|>",
      "single_word": false,
      "lstrip": false,
      "rstrip": false,
      "normalized": false,
      "special": true
    },
    {
      "id": 53,
      "content": "<|reserved_special_token_48|>",
      "single_word": false,
      "lstrip": false,
      "rstrip": false,
      "normalized": false,
      "special": true
    },
    {
      "id": 54,
      "content": "<|reserved_special_token_49|>",
      "single_word": false,
      "lstrip": false,
      "rstrip": false,
      "normalized": false,
      "special": true
    },
    {
      "id": 55,
      "content": "<|reserved_special_token_50|>",
      "single_word": false,
      "lstrip": false,
      "rstrip": false,
      "normalized": false,
      "special": true
    },
    {
      "id": 56,
      "content": "<|reserved_special_token_51|>",
      "single_word": false,
      "lstrip": false,
      "rstrip": false,
      "normalized": false,
      "special": true
    },
    {
      "id": 57,
      "content": "<|reserved_special_token_52|>",
      "single_word": false,
      "lstrip": false,
      "rstrip": false,
      "normalized": false,
      "special": true
    },
    {
      "id": 58,
      "content": "<|reserved_special_token_53|>",
      "single_word": false,
      "lstrip": false,
      "rstrip": false,
      "normalized": false,
      "special": true
    },
    {
      "id": 59,
      "content": "<|reserved_special_token_54|>",
      "single_word": false,
      "lstrip": false,
      "rstrip": false,
      "normalized": false,
      "special": true
    },
    {
      "id": 60,
      "content": "<|reserved_special_token_55|>",
      "single_word": false,
      "lstrip": false,
      "rstrip": false,
      "normalized": false,
      "special": true
    },
    {
      "id": 61,
      "content": "<|reserved_special_token_56|>",
      "single_word": false,
      "lstrip": false,
      "rstrip": false,
      "normalized": false,
      "special": true
    },
    {
      "id": 62,
      "content": "<|reserved_special_token_57|>",
      "single_word": false,
      "lstrip": false,
      "rstrip": false,
      "normalized": false,
      "special": true
    },
    {
      "id": 63,
      "content": "<|reserved_special_token_58|>",
      "single_word": false,
      "lstrip": false,
      "rstrip": false,
      "normalized": false,
      "special": true
    },
    {
      "id": 64,
      "content": "<|reserved_special_token_59|>",
      "single_word": false,
      "lstrip": false,
      "rstrip": false,
      "normalized": false,
      "special": true
    },
    {
      "id": 65,
      "content": "<|reserved_special_token_60|>",
      "single_word": false,
      "lstrip": false,
      "rstrip": false,
      "normalized": false,
      "special": true
    },
    {
      "id": 66,
      "content": "<|reserved_special_token_61|>",
      "single_word": false,
      "lstrip": false,
      "rstrip": false,
      "normalized": false,
      "special": true
    },
    {
      "id": 67,
      "content": "<|reserved_special_token_62|>",
      "single_word": false,
      "lstrip": false,
      "rstrip": false,
      "normalized": false,
      "special": true
    },
    {
      "id": 68,
      "content": "<|reserved_special_token_63|>",
      "single_word": false,
      "lstrip": false,
      "rstrip": false,
      "normalized": false,
      "special": true
    },
    {
      "id": 69,
      "content": "<|reserved_special_token_64|>",
      "single_word": false,
      "lstrip": false,
      "rstrip": false,
      "normalized": false,
      "special": true
    },
    {
      "id": 70,
      "content": "<|reserved_special_token_65|>",
      "single_word": false,
      "lstrip": false,
      "rstrip": false,
      "normalized": false,
      "special": true
    },
    {
      "id": 71,
      "content": "<|reserved_special_token_66|>",
      "single_word": false,
      "lstrip": false,
      "rstrip": false,
      "normalized": false,
      "special": true
    },
    {
      "id": 72,
      "content": "<|reserved_special_token_67|>",
      "single_word": false,
      "lstrip": false,
      "rstrip": false,
      "normalized": false,
      "special": true
    },
    {
      "id": 73,
      "content": "<|reserved_special_token_68|>",
      "single_word": false,
      "lstrip": false,
      "rstrip": false,
      "normalized": false,
      "special": true
    },
    {
      "id": 74,
      "content": "<|reserved_special_token_69|>",
      "single_word": false,
      "lstrip": false,
      "rstrip": false,
      "normalized": false,
      "special": true
    },
    {
      "id": 75,
      "content": "<|reserved_special_token_70|>",
      "single_word": false,
      "lstrip": false,
      "rstrip": false,
      "normalized": false,
      "special": true
    },
    {
      "id": 76,
      "content": "<|reserved_special_token_71|>",
      "single_word": false,
      "lstrip": false,
      "rstrip": false,
      "normalized": false,
      "special": true
    },
    {
      "id": 77,
      "content": "<|reserved_special_token_72|>",
      "single_word": false,
      "lstrip": false,
      "rstrip": false,
      "normalized": false,
      "special": true
    },
    {
      "id": 78,
      "content": "<|reserved_special_token_73|>",
      "single_word": false,
      "lstrip": false,
      "rstrip": false,
      "normalized": false,
      "special": true
    },
    {
      "id": 79,
      "content": "<|reserved_special_token_74|>",
      "single_word": false,
      "lstrip": false,
      "rstrip": false,
      "normalized": false,
      "special": true
    },
    {
      "id": 80,
      "content": "<|reserved_special_token_75|>",
      "single_word": false,
      "lstrip": false,
      "rstrip": false,
      "normalized": false,
      "special": true
    },
    {
      "id": 81,
      "content": "<|reserved_special_token_76|>",
      "single_word": false,
      "lstrip": false,
      "rstrip": false,
      "normalized": false,
      "special": true
    },
    {
      "id": 82,
      "content": "<|reserved_special_token_77|>",
      "single_word": false,
      "lstrip": false,
      "rstrip": false,
      "normalized": false,
      "special": true
    },
    {
      "id": 83,
      "content": "<|reserved_special_token_78|>",
      "single_word": false,
      "lstrip": false,
      "rstrip": false,
      "normalized": false,
      "special": true
    },
    {
      "id": 84,
      "content": "<|reserved_special_token_79|>",
      "single_word": false,
      "lstrip": false,
      "rstrip": false,
      "normalized": false,
      "special": true
    },
    {
      "id": 85,
      "content": "<|reserved_special_token_80|>",
      "single_word": false,
      "lstrip": false,
      "rstrip": false,
      "normalized": false,
      "special": true
    },
    {
      "id": 86,
      "content": "<|reserved_special_token_81|>",
      "single_word": false,
      "lstrip": false,
      "rstrip": false,
      "normalized": false,
      "special": true
    },
    {
      "id": 87,
      "content": "<|reserved_special_token_82|>",
      "single_word": false,
      "lstrip": false,
      "rstrip": false,
      "normalized": false,
      "special": true
    },
    {
      "id": 88,
      "content": "<|reserved_special_token_83|>",
      "single_word": false,
      "lstrip": false,
      "rstrip": false,
      "normalized": false,
      "special": true
    },
    {
      "id": 89,
      "content": "<|reserved_special_token_84|>",
      "single_word": false,
      "lstrip": false,
      "rstrip": false,
      "normalized": false,
      "special": true
    },
    {
      "id": 90,
      "content": "<|reserved_special_token_85|>",
      "single_word": false,
      "lstrip": false,
      "rstrip": false,
      "normalized": false,
      "special": true
    },
    {
      "id": 91,
      "content": "<|reserved_special_token_86|>",
      "single_word": false,
      "lstrip": false,
      "rstrip": false,
      "normalized": false,
      "special": true
    },
    {
      "id": 92,
      "content": "<|reserved_special_token_87|>",
      "single_word": false,
      "lstrip": false,
      "rstrip": false,
      "normalized": false,
      "special": true
    },
    {
      "id": 93,
      "content": "<|reserved_special_token_88|>",
      "single_word": false,
      "lstrip": false,
      "rstrip": false,
      "normalized": false,
      "special": true
    },
    {
      "id": 94,
      "content": "<|reserved_special_token_89|>",
      "single_word": false,
      "lstrip": false,
      "rstrip": false,
      "normalized": false,
      "special": true
    },
    {
      "id": 95,
      "content": "<|reserved_special_token_90|>",
      "single_word": false,
      "lstrip": false,
      "rstrip": false,
      "normalized": false,
      "special": true
    },
    {
      "id": 96,
      "content": "<|reserved_special_token_91|>",
      "single_word": false,
      "lstrip": false,
      "rstrip": false,
      "normalized": false,
      "special": true
    },
    {
      "id": 97,
      "content": "<|reserved_special_token_92|>",
      "single_word": false,
      "lstrip": false,
      "rstrip": false,
      "normalized": false,
      "special": true
    },
    {
      "id": 98,
      "content": "<|reserved_special_token_93|>",
      "single_word": false,
      "lstrip": false,
      "rstrip": false,
      "normalized": false,
      "special": true
    },
    {
      "id": 99,
      "content": "<|reserved_special_token_94|>",
      "single_word": false,
      "lstrip": false,
      "rstrip": false,
      "normalized": false,
      "special": true
    },
    {
      "id": 100,
      "content": "<|reserved_special_token_95|>",
      "single_word": false,
      "lstrip": false,
      "rstrip": false,
      "normalized": false,
      "special": true
    },
    {
      "id": 101,
      "content": "<|reserved_special_token_96|>",
      "single_word": false,
      "lstrip": false,
      "rstrip": false,
      "normalized": false,
      "special": true
    },
    {
      "id": 102,
      "content": "<|reserved_special_token_97|>",
      "single_word": false,
      "lstrip": false,
      "rstrip": false,
      "normalized": false,
      "special": true
    },
    {
      "id": 103,
      "content": "<|reserved_special_token_98|>",
      "single_word": false,
      "lstrip": false,
      "rstrip": false,
      "normalized": false,
      "special": true
    },
    {
      "id": 104,
      "content": "<|reserved_special_token_99|>",
      "single_word": false,
      "lstrip": false,
      "rstrip": false,
      "normalized": false,
      "special": true
    },
    {
      "id": 105,
      "content": "<|reserved_special_token_100|>",
      "single_word": false,
      "lstrip": false,
      "rstrip": false,
      "normalized": false,
      "special": true
    },
    {
      "id": 106,
      "content": "<|reserved_special_token_101|>",
      "single_word": false,
      "lstrip": false,
      "rstrip": false,
      "normalized": false,
      "special": true
    },
    {
      "id": 107,
      "content": "<|reserved_special_token_102|>",
      "single_word": false,
      "lstrip": false,
      "rstrip": false,
      "normalized": false,
      "special": true
    },
    {
      "id": 108,
      "content": "<|reserved_special_token_103|>",
      "single_word": false,
      "lstrip": false,
      "rstrip": false,
      "normalized": false,
      "special": true
    },
    {
      "id": 109,
      "content": "<|reserved_special_token_104|>",
      "single_word": false,
      "lstrip": false,
      "rstrip": false,
      "normalized": false,
      "special": true
    },
    {
      "id": 110,
      "content": "<|reserved_special_token_105|>",
      "single_word": false,
      "lstrip": false,
      "rstrip": false,
      "normalized": false,
      "special": true
    },
    {
      "id": 111,
      "content": "<|reserved_special_token_106|>",
      "single_word": false,
      "lstrip": false,
      "rstrip": false,
      "normalized": false,
      "special": true
    },
    {
      "id": 112,
      "content": "<|reserved_special_token_107|>",
      "single_word": false,
      "lstrip": false,
      "rstrip": false,
      "normalized": false,
      "special": true
    },
    {
      "id": 113,
      "content": "<|reserved_special_token_108|>",
      "single_word": false,
      "lstrip": false,
      "rstrip": false,
      "normalized": false,
      "special": true
    },
    {
      "id": 114,
      "content": "<|reserved_special_token_109|>",
      "single_word": false,
      "lstrip": false,
      "rstrip": false,
      "normalized": false,
      "special": true
    },
    {
      "id": 115,
      "content": "<|reserved_special_token_110|>",
      "single_word": false,
      "lstrip": false,
      "rstrip": false,
      "normalized": false,
      "special": true
    },
    {
      "id": 116,
      "content": "<|reserved_special_token_111|>",
      "single_word": false,
      "lstrip": false,
      "rstrip": false,
      "normalized": false,
      "special": true
    },
    {
      "id": 117,
      "content": "<|reserved_special_token_112|>",
      "single_word": false,
      "lstrip": false,
      "rstrip": false,
      "normalized": false,
      "special": true
    },
    {
      "id": 118,
      "content": "<|reserved_special_token_113|>",
      "single_word": false,
      "lstrip": false,
      "rstrip": false,
      "normalized": false,
      "special": true
    },
    {
      "id": 119,
      "content": "<|reserved_special_token_114|>",
      "single_word": false,
      "lstrip": false,
      "rstrip": false,
      "normalized": false,
      "special": true
    },
    {
      "id": 120,
      "content": "<|reserved_special_token_115|>",
      "single_word": false,
      "lstrip": false,
      "rstrip": false,
      "normalized": false,
      "special": true
    },
    {
      "id": 121,
      "content": "<|reserved_special_token_116|>",
      "single_word": false,
      "lstrip": false,
      "rstrip": false,
      "normalized": false,
      "special": true
    },
    {
      "id": 122,
      "content": "<|reserved_special_token_117|>",
      "single_word": false,
      "lstrip": false,
      "rstrip": false,
      "normalized": false,
      "special": true
    },
    {
      "id": 123,
      "content": "<|reserved_special_token_118|>",
      "single_word": false,
      "lstrip": false,
      "rstrip": false,
      "normalized": false,
      "special": true
    },
    {
      "id": 124,
      "content": "<|reserved_special_token_119|>",
      "single_word": false,
      "lstrip": false,
      "rstrip": false,
      "normalized": false,
      "special": true
    },
    {
      "id": 125,
      "content": "<|reserved_special_token_120|>",
      "single_word": false,
      "lstrip": false,
      "rstrip": false,
      "normalized": false,
      "special": true
    },
    {
      "id": 126,
      "content": "<|reserved_special_token_121|>",
      "single_word": false,
      "lstrip": false,
      "rstrip": false,
      "normalized": false,
      "special": true
    },
    {
      "id": 127,
      "content": "<|reserved_special_token_122|>",
      "single_word": false,
      "lstrip": false,
      "rstrip": false,
      "normalized": false,
      "special": true
    },
    {
      "id": 128,
      "content": "<|reserved_special_token_123|>",
      "single_word": false,
      "lstrip": false,
      "rstrip": false,
      "normalized": false,
      "special": true
    },
    {
      "id": 129,
      "content": "<|reserved_special_token_124|>",
      "single_word": false,
      "lstrip": false,
      "rstrip": false,
      "normalized": false,
      "special": true
    },
    {
      "id": 130,
      "content": "<|reserved_special_token_125|>",
      "single_word": false,
      "lstrip": false,
      "rstrip": false,
      "normalized": false,
      "special": true
    },
    {
      "id": 131,
      "content": "<|reserved_special_token_126|>",
      "single_word": false,
      "lstrip": false,
      "rstrip": false,
      "normalized": false,
      "special": true
    },
    {
      "id": 132,
      "content": "<|reserved_special_token_127|>",
      "single_word": false,
      "lstrip": false,
      "rstrip": false,
      "normalized": false,
      "special": true
    },
    {
      "id": 133,
      "content": "<|reserved_special_token_128|>",
      "single_word": false,
      "lstrip": false,
      "rstrip": false,
      "normalized": false,
      "special": true
    },
    {
      "id": 134,
      "content": "<|reserved_special_token_129|>",
      "single_word": false,
      "lstrip": false,
      "rstrip": false,
      "normalized": false,
      "special": true
    },
    {
      "id": 135,
      "content": "<|reserved_special_token_130|>",
      "single_word": false,
      "lstrip": false,
      "rstrip": false,
      "normalized": false,
      "special": true
    },
    {
      "id": 136,
      "content": "<|reserved_special_token_131|>",
      "single_word": false,
      "lstrip": false,
      "rstrip": false,
      "normalized": false,
      "special": true
    },
    {
      "id": 137,
      "content": "<|reserved_special_token_132|>",
      "single_word": false,
      "lstrip": false,
      "rstrip": false,
      "normalized": false,
      "special": true
    },
    {
      "id": 138,
      "content": "<|reserved_special_token_133|>",
      "single_word": false,
      "lstrip": false,
      "rstrip": false,
      "normalized": false,
      "special": true
    },
    {
      "id": 139,
      "content": "<|reserved_special_token_134|>",
      "single_word": false,
      "lstrip": false,
      "rstrip": false,
      "normalized": false,
      "special": true
    },
    {
      "id": 140,
      "content": "<|reserved_special_token_135|>",
      "single_word": false,
      "lstrip": false,
      "rstrip": false,
      "normalized": false,
      "special": true
    },
    {
      "id": 141,
      "content": "<|reserved_special_token_136|>",
      "single_word": false,
      "lstrip": false,
      "rstrip": false,
      "normalized": false,
      "special": true
    },
    {
      "id": 142,
      "content": "<|reserved_special_token_137|>",
      "single_word": false,
      "lstrip": false,
      "rstrip": false,
      "normalized": false,
      "special": true
    },
    {
      "id": 143,
      "content": "<|reserved_special_token_138|>",
      "single_word": false,
      "lstrip": false,
      "rstrip": false,
      "normalized": false,
      "special": true
    },
    {
      "id": 144,
      "content": "<|reserved_special_token_139|>",
      "single_word": false,
      "lstrip": false,
      "rstrip": false,
      "normalized": false,
      "special": true
    },
    {
      "id": 145,
      "content": "<|reserved_special_token_140|>",
      "single_word": false,
      "lstrip": false,
      "rstrip": false,
      "normalized": false,
      "special": true
    },
    {
      "id": 146,
      "content": "<|reserved_special_token_141|>",
      "single_word": false,
      "lstrip": false,
      "rstrip": false,
      "normalized": false,
      "special": true
    },
    {
      "id": 147,
      "content": "<|reserved_special_token_142|>",
      "single_word": false,
      "lstrip": false,
      "rstrip": false,
      "normalized": false,
      "special": true
    },
    {
      "id": 148,
      "content": "<|reserved_special_token_143|>",
      "single_word": false,
      "lstrip": false,
      "rstrip": false,
      "normalized": false,
      "special": true
    },
    {
      "id": 149,
      "content": "<|reserved_special_token_144|>",
      "single_word": false,
      "lstrip": false,
      "rstrip": false,
      "normalized": false,
      "special": true
    },
    {
      "id": 150,
      "content": "<|reserved_special_token_145|>",
      "single_word": false,
      "lstrip": false,
      "rstrip": false,
      "normalized": false,
      "special": true
    },
    {
      "id": 151,
      "content": "<|reserved_special_token_146|>",
      "single_word": false,
      "lstrip": false,
      "rstrip": false,
      "normalized": false,
      "special": true
    },
    {
      "id": 152,
      "content": "<|reserved_special_token_147|>",
      "single_word": false,
      "lstrip": false,
      "rstrip": false,
      "normalized": false,
      "special": true
    },
    {
      "id": 153,
      "content": "<|reserved_special_token_148|>",
      "single_word": false,
      "lstrip": false,
      "rstrip": false,
      "normalized": false,
      "special": true
    },
    {
      "id": 154,
      "content": "<|reserved_special_token_149|>",
      "single_word": false,
      "lstrip": false,
      "rstrip": false,
      "normalized": false,
      "special": true
    },
    {
      "id": 155,
      "content": "<|reserved_special_token_150|>",
      "single_word": false,
      "lstrip": false,
      "rstrip": false,
      "normalized": false,
      "special": true
    },
    {
      "id": 156,
      "content": "<|reserved_special_token_151|>",
      "single_word": false,
      "lstrip": false,
      "rstrip": false,
      "normalized": false,
      "special": true
    },
    {
      "id": 157,
      "content": "<|reserved_special_token_152|>",
      "single_word": false,
      "lstrip": false,
      "rstrip": false,
      "normalized": false,
      "special": true
    },
    {
      "id": 158,
      "content": "<|reserved_special_token_153|>",
      "single_word": false,
      "lstrip": false,
      "rstrip": false,
      "normalized": false,
      "special": true
    },
    {
      "id": 159,
      "content": "<|reserved_special_token_154|>",
      "single_word": false,
      "lstrip": false,
      "rstrip": false,
      "normalized": false,
      "special": true
    },
    {
      "id": 160,
      "content": "<|reserved_special_token_155|>",
      "single_word": false,
      "lstrip": false,
      "rstrip": false,
      "normalized": false,
      "special": true
    },
    {
      "id": 161,
      "content": "<|reserved_special_token_156|>",
      "single_word": false,
      "lstrip": false,
      "rstrip": false,
      "normalized": false,
      "special": true
    },
    {
      "id": 162,
      "content": "<|reserved_special_token_157|>",
      "single_word": false,
      "lstrip": false,
      "rstrip": false,
      "normalized": false,
      "special": true
    },
    {
      "id": 163,
      "content": "<|reserved_special_token_158|>",
      "single_word": false,
      "lstrip": false,
      "rstrip": false,
      "normalized": false,
      "special": true
    },
    {
      "id": 164,
      "content": "<|reserved_special_token_159|>",
      "single_word": false,
      "lstrip": false,
      "rstrip": false,
      "normalized": false,
      "special": true
    },
    {
      "id": 165,
      "content": "<|reserved_special_token_160|>",
      "single_word": false,
      "lstrip": false,
      "rstrip": false,
      "normalized": false,
      "special": true
    },
    {
      "id": 166,
      "content": "<|reserved_special_token_161|>",
      "single_word": false,
      "lstrip": false,
      "rstrip": false,
      "normalized": false,
      "special": true
    },
    {
      "id": 167,
      "content": "<|reserved_special_token_162|>",
      "single_word": false,
      "lstrip": false,
      "rstrip": false,
      "normalized": false,
      "special": true
    },
    {
      "id": 168,
      "content": "<|reserved_special_token_163|>",
      "single_word": false,
      "lstrip": false,
      "rstrip": false,
      "normalized": false,
      "special": true
    },
    {
      "id": 169,
      "content": "<|reserved_special_token_164|>",
      "single_word": false,
      "lstrip": false,
      "rstrip": false,
      "normalized": false,
      "special": true
    },
    {
      "id": 170,
      "content": "<|reserved_special_token_165|>",
      "single_word": false,
      "lstrip": false,
      "rstrip": false,
      "normalized": false,
      "special": true
    },
    {
      "id": 171,
      "content": "<|reserved_special_token_166|>",
      "single_word": false,
      "lstrip": false,
      "rstrip": false,
      "normalized": false,
      "special": true
    },
    {
      "id": 172,
      "content": "<|reserved_special_token_167|>",
      "single_word": false,
      "lstrip": false,
      "rstrip": false,
      "normalized": false,
      "special": true
    },
    {
      "id": 173,
      "content": "<|reserved_special_token_168|>",
      "single_word": false,
      "lstrip": false,
      "rstrip": false,
      "normalized": false,
      "special": true
    },
    {
      "id": 174,
      "content": "<|reserved_special_token_169|>",
      "single_word": false,
      "lstrip": false,
      "rstrip": false,
      "normalized": false,
      "special": true
    },
    {
      "id": 175,
      "content": "<|reserved_special_token_170|>",
      "single_word": false,
      "lstrip": false,
      "rstrip": false,
      "normalized": false,
      "special": true
    },
    {
      "id": 176,
      "content": "<|reserved_special_token_171|>",
      "single_word": false,
      "lstrip": false,
      "rstrip": false,
      "normalized": false,
      "special": true
    },
    {
      "id": 177,
      "content": "<|reserved_special_token_172|>",
      "single_word": false,
      "lstrip": false,
      "rstrip": false,
      "normalized": false,
      "special": true
    },
    {
      "id": 178,
      "content": "<|reserved_special_token_173|>",
      "single_word": false,
      "lstrip": false,
      "rstrip": false,
      "normalized": false,
      "special": true
    },
    {
      "id": 179,
      "content": "<|reserved_special_token_174|>",
      "single_word": false,
      "lstrip": false,
      "rstrip": false,
      "normalized": false,
      "special": true
    },
    {
      "id": 180,
      "content": "<|reserved_special_token_175|>",
      "single_word": false,
      "lstrip": false,
      "rstrip": false,
      "normalized": false,
      "special": true
    },
    {
      "id": 181,
      "content": "<|reserved_special_token_176|>",
      "single_word": false,
      "lstrip": false,
      "rstrip": false,
      "normalized": false,
      "special": true
    },
    {
      "id": 182,
      "content": "<|reserved_special_token_177|>",
      "single_word": false,
      "lstrip": false,
      "rstrip": false,
      "normalized": false,
      "special": true
    },
    {
      "id": 183,
      "content": "<|reserved_special_token_178|>",
      "single_word": false,
      "lstrip": false,
      "rstrip": false,
      "normalized": false,
      "special": true
    },
    {
      "id": 184,
      "content": "<|reserved_special_token_179|>",
      "single_word": false,
      "lstrip": false,
      "rstrip": false,
      "normalized": false,
      "special": true
    },
    {
      "id": 185,
      "content": "<|reserved_special_token_180|>",
      "single_word": false,
      "lstrip": false,
      "rstrip": false,
      "normalized": false,
      "special": true
    },
    {
      "id": 186,
      "content": "<|reserved_special_token_181|>",
      "single_word": false,
      "lstrip": false,
      "rstrip": false,
      "normalized": false,
      "special": true
    },
    {
      "id": 187,
      "content": "<|reserved_special_token_182|>",
      "single_word": false,
      "lstrip": false,
      "rstrip": false,
      "normalized": false,
      "special": true
    },
    {
      "id": 188,
      "content": "<|reserved_special_token_183|>",
      "single_word": false,
      "lstrip": false,
      "rstrip": false,
      "normalized": false,
      "special": true
    },
    {
      "id": 189,
      "content": "<|reserved_special_token_184|>",
      "single_word": false,
      "lstrip": false,
      "rstrip": false,
      "normalized": false,
      "special": true
    },
    {
      "id": 190,
      "content": "<|reserved_special_token_185|>",
      "single_word": false,
      "lstrip": false,
      "rstrip": false,
      "normalized": false,
      "special": true
    },
    {
      "id": 191,
      "content": "<|reserved_special_token_186|>",
      "single_word": false,
      "lstrip": false,
      "rstrip": false,
      "normalized": false,
      "special": true
    },
    {
      "id": 192,
      "content": "<|reserved_special_token_187|>",
      "single_word": false,
      "lstrip": false,
      "rstrip": false,
      "normalized": false,
      "special": true
    },
    {
      "id": 193,
      "content": "<|reserved_special_token_188|>",
      "single_word": false,
      "lstrip": false,
      "rstrip": false,
      "normalized": false,
      "special": true
    },
    {
      "id": 194,
      "content": "<|reserved_special_token_189|>",
      "single_word": false,
      "lstrip": false,
      "rstrip": false,
      "normalized": false,
      "special": true
    },
    {
      "id": 195,
      "content": "<|reserved_special_token_190|>",
      "single_word": false,
      "lstrip": false,
      "rstrip": false,
      "normalized": false,
      "special": true
    },
    {
      "id": 196,
      "content": "<|reserved_special_token_191|>",
      "single_word": false,
      "lstrip": false,
      "rstrip": false,
      "normalized": false,
      "special": true
    },
    {
      "id": 197,
      "content": "<|reserved_special_token_192|>",
      "single_word": false,
      "lstrip": false,
      "rstrip": false,
      "normalized": false,
      "special": true
    },
    {
      "id": 198,
      "content": "<|reserved_special_token_193|>",
      "single_word": false,
      "lstrip": false,
      "rstrip": false,
      "normalized": false,
      "special": true
    },
    {
      "id": 199,
      "content": "<|reserved_special_token_194|>",
      "single_word": false,
      "lstrip": false,
      "rstrip": false,
      "normalized": false,
      "special": true
    },
    {
      "id": 200,
      "content": "<|reserved_special_token_195|>",
      "single_word": false,
      "lstrip": false,
      "rstrip": false,
      "normalized": false,
      "special": true
    },
    {
      "id": 201,
      "content": "<|reserved_special_token_196|>",
      "single_word": false,
      "lstrip": false,
      "rstrip": false,
      "normalized": false,
      "special": true
    },
    {
      "id": 202,
      "content": "<|reserved_special_token_197|>",
      "single_word": false,
      "lstrip": false,
      "rstrip": false,
      "normalized": false,
      "special": true
    },
    {
      "id": 203,
      "content": "<|reserved_special_token_198|>",
      "single_word": false,
      "lstrip": false,
      "rstrip": false,
      "normalized": false,
      "special": true
    },
    {
      "id": 204,
      "content": "<|reserved_special_token_199|>",
      "single_word": false,
      "lstrip": false,
      "rstrip": false,
      "normalized": false,
      "special": true
    },
    {
      "id": 205,
      "content": "<|reserved_special_token_200|>",
      "single_word": false,
      "lstrip": false,
      "rstrip": false,
      "normalized": false,
      "special": true
    },
    {
      "id": 206,
      "content": "<|reserved_special_token_201|>",
      "single_word": false,
      "lstrip": false,
      "rstrip": false,
      "normalized": false,
      "special": true
    },
    {
      "id": 207,
      "content": "<|reserved_special_token_202|>",
      "single_word": false,
      "lstrip": false,
      "rstrip": false,
      "normalized": false,
      "special": true
    },
    {
      "id": 208,
      "content": "<|reserved_special_token_203|>",
      "single_word": false,
      "lstrip": false,
      "rstrip": false,
      "normalized": false,
      "special": true
    },
    {
      "id": 209,
      "content": "<|reserved_special_token_204|>",
      "single_word": false,
      "lstrip": false,
      "rstrip": false,
      "normalized": false,
      "special": true
    },
    {
      "id": 210,
      "content": "<|reserved_special_token_205|>",
      "single_word": false,
      "lstrip": false,
      "rstrip": false,
      "normalized": false,
      "special": true
    },
    {
      "id": 211,
      "content": "<|reserved_special_token_206|>",
      "single_word": false,
      "lstrip": false,
      "rstrip": false,
      "normalized": false,
      "special": true
    },
    {
      "id": 212,
      "content": "<|reserved_special_token_207|>",
      "single_word": false,
      "lstrip": false,
      "rstrip": false,
      "normalized": false,
      "special": true
    },
    {
      "id": 213,
      "content": "<|reserved_special_token_208|>",
      "single_word": false,
      "lstrip": false,
      "rstrip": false,
      "normalized": false,
      "special": true
    },
    {
      "id": 214,
      "content": "<|reserved_special_token_209|>",
      "single_word": false,
      "lstrip": false,
      "rstrip": false,
      "normalized": false,
      "special": true
    },
    {
      "id": 215,
      "content": "<|reserved_special_token_210|>",
      "single_word": false,
      "lstrip": false,
      "rstrip": false,
      "normalized": false,
      "special": true
    },
    {
      "id": 216,
      "content": "<|reserved_special_token_211|>",
      "single_word": false,
      "lstrip": false,
      "rstrip": false,
      "normalized": false,
      "special": true
    },
    {
      "id": 217,
      "content": "<|reserved_special_token_212|>",
      "single_word": false,
      "lstrip": false,
      "rstrip": false,
      "normalized": false,
      "special": true
    },
    {
      "id": 218,
      "content": "<|reserved_special_token_213|>",
      "single_word": false,
      "lstrip": false,
      "rstrip": false,
      "normalized": false,
      "special": true
    },
    {
      "id": 219,
      "content": "<|reserved_special_token_214|>",
      "single_word": false,
      "lstrip": false,
      "rstrip": false,
      "normalized": false,
      "special": true
    },
    {
      "id": 220,
      "content": "<|reserved_special_token_215|>",
      "single_word": false,
      "lstrip": false,
      "rstrip": false,
      "normalized": false,
      "special": true
    },
    {
      "id": 221,
      "content": "<|reserved_special_token_216|>",
      "single_word": false,
      "lstrip": false,
      "rstrip": false,
      "normalized": false,
      "special": true
    },
    {
      "id": 222,
      "content": "<|reserved_special_token_217|>",
      "single_word": false,
      "lstrip": false,
      "rstrip": false,
      "normalized": false,
      "special": true
    },
    {
      "id": 223,
      "content": "<|reserved_special_token_218|>",
      "single_word": false,
      "lstrip": false,
      "rstrip": false,
      "normalized": false,
      "special": true
    },
    {
      "id": 224,
      "content": "<|reserved_special_token_219|>",
      "single_word": false,
      "lstrip": false,
      "rstrip": false,
      "normalized": false,
      "special": true
    },
    {
      "id": 225,
      "content": "<|reserved_special_token_220|>",
      "single_word": false,
      "lstrip": false,
      "rstrip": false,
      "normalized": false,
      "special": true
    },
    {
      "id": 226,
      "content": "<|reserved_special_token_221|>",
      "single_word": false,
      "lstrip": false,
      "rstrip": false,
      "normalized": false,
      "special": true
    },
    {
      "id": 227,
      "content": "<|reserved_special_token_222|>",
      "single_word": false,
      "lstrip": false,
      "rstrip": false,
      "normalized": false,
      "special": true
    },
    {
      "id": 228,
      "content": "<|reserved_special_token_223|>",
      "single_word": false,
      "lstrip": false,
      "rstrip": false,
      "normalized": false,
      "special": true
    },
    {
      "id": 229,
      "content": "<|reserved_special_token_224|>",
      "single_word": false,
      "lstrip": false,
      "rstrip": false,
      "normalized": false,
      "special": true
    },
    {
      "id": 230,
      "content": "<|reserved_special_token_225|>",
      "single_word": false,
      "lstrip": false,
      "rstrip": false,
      "normalized": false,
      "special": true
    },
    {
      "id": 231,
      "content": "<|reserved_special_token_226|>",
      "single_word": false,
      "lstrip": false,
      "rstrip": false,
      "normalized": false,
      "special": true
    },
    {
      "id": 232,
      "content": "<|reserved_special_token_227|>",
      "single_word": false,
      "lstrip": false,
      "rstrip": false,
      "normalized": false,
      "special": true
    },
    {
      "id": 233,
      "content": "<|reserved_special_token_228|>",
      "single_word": false,
      "lstrip": false,
      "rstrip": false,
      "normalized": false,
      "special": true
    },
    {
      "id": 234,
      "content": "<|reserved_special_token_229|>",
      "single_word": false,
      "lstrip": false,
      "rstrip": false,
      "normalized": false,
      "special": true
    },
    {
      "id": 235,
      "content": "<|reserved_special_token_230|>",
      "single_word": false,
      "lstrip": false,
      "rstrip": false,
      "normalized": false,
      "special": true
    },
    {
      "id": 236,
      "content": "<|reserved_special_token_231|>",
      "single_word": false,
      "lstrip": false,
      "rstrip": false,
      "normalized": false,
      "special": true
    },
    {
      "id": 237,
      "content": "<|reserved_special_token_232|>",
      "single_word": false,
      "lstrip": false,
      "rstrip": false,
      "normalized": false,
      "special": true
    },
    {
      "id": 238,
      "content": "<|reserved_special_token_233|>",
      "single_word": false,
      "lstrip": false,
      "rstrip": false,
      "normalized": false,
      "special": true
    },
    {
      "id": 239,
      "content": "<|reserved_special_token_234|>",
      "single_word": false,
      "lstrip": false,
      "rstrip": false,
      "normalized": false,
      "special": true
    },
    {
      "id": 240,
      "content": "<|reserved_special_token_235|>",
      "single_word": false,
      "lstrip": false,
      "rstrip": false,
      "normalized": false,
      "special": true
    },
    {
      "id": 241,
      "content": "<|reserved_special_token_236|>",
      "single_word": false,
      "lstrip": false,
      "rstrip": false,
      "normalized": false,
      "special": true
    },
    {
      "id": 242,
      "content": "<|reserved_special_token_237|>",
      "single_word": false,
      "lstrip": false,
      "rstrip": false,
      "normalized": false,
      "special": true
    },
    {
      "id": 243,
      "content": "<|reserved_special_token_238|>",
      "single_word": false,
      "lstrip": false,
      "rstrip": false,
      "normalized": false,
      "special": true
    },
    {
      "id": 244,
      "content": "<|reserved_special_token_239|>",
      "single_word": false,
      "lstrip": false,
      "rstrip": false,
      "normalized": false,
      "special": true
    },
    {
      "id": 245,
      "content": "<|reserved_special_token_240|>",
      "single_word": false,
      "lstrip": false,
      "rstrip": false,
      "normalized": false,
      "special": true
    },
    {
      "id": 246,
      "content": "<|reserved_special_token_241|>",
      "single_word": false,
      "lstrip": false,
      "rstrip": false,
      "normalized": false,
      "special": true
    },
    {
      "id": 247,
      "content": "<|reserved_special_token_242|>",
      "single_word": false,
      "lstrip": false,
      "rstrip": false,
      "normalized": false,
      "special": true
    },
    {
      "id": 248,
      "content": "<|reserved_special_token_243|>",
      "single_word": false,
      "lstrip": false,
      "rstrip": false,
      "normalized": false,
      "special": true
    },
    {
      "id": 249,
      "content": "<|reserved_special_token_244|>",
      "single_word": false,
      "lstrip": false,
      "rstrip": false,
      "normalized": false,
      "special": true
    },
    {
      "id": 250,
      "content": "<|reserved_special_token_245|>",
      "single_word": false,
      "lstrip": false,
      "rstrip": false,
      "normalized": false,
      "special": true
    },
    {
      "id": 251,
      "content": "<|reserved_special_token_246|>",
      "single_word": false,
      "lstrip": false,
      "rstrip": false,
      "normalized": false,
      "special": true
    },
    {
      "id": 252,
      "content": "<|reserved_special_token_247|>",
      "single_word": false,
      "lstrip": false,
      "rstrip": false,
      "normalized": false,
      "special": true
    },
    {
      "id": 253,
      "content": "<|reserved_special_token_248|>",
      "single_word": false,
      "lstrip": false,
      "rstrip": false,
      "normalized": false,
      "special": true
    },
    {
      "id": 254,
      "content": "<|reserved_special_token_249|>",
      "single_word": false,
      "lstrip": false,
      "rstrip": false,
      "normalized": false,
      "special": true
    },
    {
      "id": 255,
      "content": "<|reserved_special_token_250|>",
      "single_word": false,
      "lstrip": false,
      "rstrip": false,
      "normalized": false,
      "special": true
    }
  ],
  "normalizer": null,
  "pre_tokenizer": {
    "type": "Sequence",
    "pretokenizers": [
      {
        "type": "Split",
        "pattern": {
          "Regex": "(?i:'s|'t|'re|'ve|'m|'ll|'d)|[^\\r\\n\\p{L}\\p{N}]?\\p{L}+|\\p{N}{1,3}| ?[^\\s\\p{L}\\p{N}]+[\\r\\n]*|\\s*[\\r\\n]+|\\s+(?!\\S)|\\s+"
        },
        "behavior": "Isolated",
        "invert": false
      },
      {
        "type": "ByteLevel",
        "add_prefix_space": false,
        "trim_offsets": true,
        "use_regex": false
      }
    ]
  },
  "post_processor": {
    "type": "Sequence",
    "processors": [
      {
        "type": "ByteLevel",
        "add_prefix_space": true,
        "trim_offsets": false,
        "use_regex": true
      },
      {
        "type": "TemplateProcessing",
        "single": [
          {
            "SpecialToken": {
              "id": "<|begin_of_text|>",
              "type_id": 0
            }
          },
          {
            "Sequence": {
              "id": "A",
              "type_id": 0
            }
          }
        ],
        "pair": [
          {
            "SpecialToken": {
              "id": "<|begin_of_text|>",
              "type_id": 0
            }
          },
          {
            "Sequence": {
              "id": "A",
              "type_id": 0
            }
          },
          {
            "SpecialToken": {
              "id": "<|begin_of_text|>",
              "type_id": 1
            }
          },
          {
            "Sequence": {
              "id": "B",
              "type_id": 1
            }
          }
        ],
        "special_tokens": {
          "<|begin_of_text|>": {
            "id": "<|begin_of_text|>",
            "ids": [
              128000
            ],
            "tokens": [
              "<|begin_of_text|>"
            ]
          }
        }
      }
    ]
  },
  "decoder": {
    "type": "ByteLevel",
    "add_prefix_space": true,
    "trim_offsets": true,
    "use_regex": true
  },
  "model": {
    "type": "BPE",
    "dropout": null,
    "unk_token": null,
    "continuing_subword_prefix": null,
    "end_of_word_suffix": null,
    "fuse_unk": false,
    "byte_fallback": false,
    "ignore_merges": true,
    "vocab": {
      "<|begin_of_text|>": 0,
      "<|end_of_text|>": 1,
      "<|reserved_special_token_0|>": 2,
      "<|reserved_special_token_1|>": 3,
      "<|reserved_special_token_2|>": 4,
      "<|reserved_special_token_3|>": 5,
      "<|start_header_id|>": 6,
      "<|end_header_id|>": 7,
      "<|reserved_special_token_4|>": 8,
      "<|eot_id|>": 9,
      "<|reserved_special_token_5|>": 10,
      "<|reserved_special_token_6|>": 11,
      "<|reserved_special_token_7|>": 12,
      "<|reserved_special_token_8|>": 13,
      "<|reserved_special_token_9|>": 14,
      "<|reserved_special_token_10|>": 15,
      "<|reserved_special_token_11|>": 16,
      "<|reserved_special_token_12|>": 17,
      "<|reserved_special_token_13|>": 18,
      "<|reserved_special_token_14|>": 19,
      "<|reserved_special_token_15|>": 20,
      "<|reserved_special_token_16|>": 21,
      "<|reserved_special_token_17|>": 22,
      "<|reserved_special_token_18|>": 23,
      "<|reserved_special_token_19|>": 24,
      "<|reserved_special_token_20|>": 25,
      "<|reserved_special_token_21|>": 26,
      "<|reserved_special_token_22|>": 27,
      "<|reserved_special_token_23|>": 28,
      "<|reserved_special_token_24|>": 29,
      "<|reserved_special_token_25|>": 30,
      "<|reserved_special_token_26|>": 31,
      "<|reserved_special_token_27|>": 32,
      "<|reserved_special_token_28|>": 33,
      "<|reserved_special_token_29|>": 34,
      "<|reserved_special_token_30|>": 35,
      "<|reserved_special_token_31|>": 36,
      "<|reserved_special_token_32|>": 37,
      "<|reserved_special_token_33|>": 38,
      "<|reserved_special_token_34|>": 39,
      "<|reserved_special_token_35|>": 40,
      "<|reserved_special_token_36|>": 41,
      "<|reserved_special_token_37|>": 42,
      "<|reserved_special_token_38|>": 43,
      "<|reserved_special_token_39|>": 44,
      "<|reserved_special_token_40|>": 45,
      "<|reserved_special_token_41|>": 46,
      "<|reserved_special_token_42|>": 47,
      "<|reserved_special_token_43|>": 48,
      "<|reserved_special_token_44|>": 49,
      "<|reserved_special_token_45|>": 50,
      "<|reserved_special_token_46|>": 51,
      "<|reserved_special_token_47|>": 52,
      "<|reserved_special_token_48|>": 53,
      "<|reserved_special_token_49|>": 54,
      "<|reserved_special_token_50|>": 55,
      "<|reserved_special_token_51|>": 56,
      "<|reserved_special_token_52|>": 57,
      "<|reserved_special_token_53|>": 58,
      "<|reserved_special_token_54|>": 59,
      "<|reserved_special_token_55|>": 60,
      "<|reserved_special_token_56|>": 61,
      "<|reserved_special_token_57|>": 62,
      "<|reserved_special_token_58|>": 63,
      "<|reserved_special_token_59|>": 64,
      "<|reserved_special_token_60|>": 65,
      "<|reserved_special_token_61|>": 66,
      "<|reserved_special_token_62|>": 67,
      "<|reserved_special_token_63|>": 68,
      "<|reserved_special_token_64|>": 69,
      "<|reserved_special_token_65|>": 70,
      "<|reserved_special_token_66|>": 71,
      "<|reserved_special_token_67|>": 72,
      "<|reserved_special_token_68|>": 73,
      "<|reserved_special_token_69|>": 74,
      "<|reserved_special_token_70|>": 75,
      "<|reserved_special_token_71|>": 76,
      "<|reserved_special_token_72|>": 77,
      "<|reserved_special_token_73|>": 78,
      "<|reserved_special_token_74|>": 79,
      "<|reserved_special_token_75|>": 80,
      "<|reserved_special_token_76|>": 81,
      "<|reserved_special_token_77|>": 82,
      "<|reserved_special_token_78|>": 83,
      "<|reserved_special_token_79|>": 84,
      "<|reserved_special_token_80|>": 85,
      "<|reserved_special_token_81|>": 86,
      "<|reserved_special_token_82|>": 87,
      "<|reserved_special_token_83|>": 88,
      "<|reserved_special_token_84|>": 89,
      "<|reserved_special_token_85|>": 90,
      "<|reserved_special_token_86|>": 91,
      "<|reserved_special_token_87|>": 92,
      "<|reserved_special_token_88|>": 93,
      "<|reserved_special_token_89|>": 94,
      "<|reserved_special_token_90|>": 95,
      "<|reserved_special_token_91|>": 96,
      "<|reserved_special_token_92|>": 97,
      "<|reserved_special_token_93|>": 98,
      "<|reserved_special_token_94|>": 99,
      "<|reserved_special_token_95|>": 100,
      "<|reserved_special_token_96|>": 101,
      "<|reserved_special_token_97|>": 102,
      "<|reserved_special_token_98|>": 103,
      "<|reserved_special_token_99|>": 104,
      "<|reserved_special_token_100|>": 105,
      "<|reserved_special_token_101|>": 106,
      "<|reserved_special_token_102|>": 107,
      "<|reserved_special_token_103|>": 108,
      "<|reserved_special_token_104|>": 109,
      "<|reserved_special_token_105|>": 110,
      "<|reserved_special_token_106|>": 111,
      "<|reserved_special_token_107|>": 112,
      "<|reserved_special_token_108|>": 113,
      "<|reserved_special_token_109|>": 114,
      "<|reserved_special_token_110|>": 115,
      "<|reserved_special_token_111|>": 116,
      "<|reserved_special_token_112|>": 117,
      "<|reserved_special_token_113|>": 118,
      "<|reserved_special_token_114|>": 119,
      "<|reserved_special_token_115|>": 120,
      "<|reserved_special_token_116|>": 121,
      "<|reserved_special_token_117|>": 122,
      "<|reserved_special_token_118|>": 123,
      "<|reserved_special_token_119|>": 124,
      "<|reserved_special_token_120|>": 125,
      "<|reserved_special_token_121|>": 126,
      "<|reserved_special_token_122|>": 127,
      "<|reserved_special_token_123|>": 128,
      "<|reserved_special_token_124|>": 129,
      "<|reserved_special_token_125|>": 130,
      "<|reserved_special_token_126|>": 131,
      "<|reserved_special_token_127|>": 132,
      "<|reserved_special_token_128|>": 133,
      "<|reserved_special_token_129|>": 134,
      "<|reserved_special_token_130|>": 135,
      "<|reserved_special_token_131|>": 136,
      "<|reserved_special_token_132|>": 137,
      "<|reserved_special_token_133|>": 138,
      "<|reserved_special_token_134|>": 139,
      "<|reserved_special_token_135|>": 140,
      "<|reserved_special_token_136|>": 141,
      "<|reserved_special_token_137|>": 142,
      "<|reserved_special_token_138|>": 143,
      "<|reserved_special_token_139|>": 144,
      "<|reserved_special_token_140|>": 145,
      "<|reserved_special_token_141|>": 146,
      "<|reserved_special_token_142|>": 147,
      "<|reserved_special_token_143|>": 148,
      "<|reserved_special_token_144|>": 149,
      "<|reserved_special_token_145|>": 150,
      "<|reserved_special_token_146|>": 151,
      "<|reserved_special_token_147|>": 152,
      "<|reserved_special_token_148|>": 153,
      "<|reserved_special_token_149|>": 154,
      "<|reserved_special_token_150|>": 155,
      "<|reserved_special_token_151|>": 156,
      "<|reserved_special_token_152|>": 157,
      "<|reserved_special_token_153|>": 158,
      "<|reserved_special_token_154|>": 159,
      "<|reserved_special_token_155|>": 160,
      "<|reserved_special_token_156|>": 161,
      "<|reserved_special_token_157|>": 162,
      "<|reserved_special_token_158|>": 163,
      "<|reserved_special_token_159|>": 164,
      "<|reserved_special_token_160|>": 165,
      "<|reserved_special_token_161|>": 166,
      "<|reserved_special_token_162|>": 167,
      "<|reserved_special_token_163|>": 168,
      "<|reserved_special_token_164|>": 169,
      "<|reserved_special_token_165|>": 170,
      "<|reserved_special_token_166|>": 171,
      "<|reserved_special_token_167|>": 172,
      "<|reserved_special_token_168|>": 173,
      "<|reserved_special_token_169|>": 174,
      "<|reserved_special_token_170|>": 175,
      "<|reserved_special_token_171|>": 176,
      "<|reserved_special_token_172|>": 177,
      "<|reserved_special_token_173|>": 178,
      "<|reserved_special_token_174|>": 179,
      "<|reserved_special_token_175|>": 180,
      "<|reserved_special_token_176|>": 181,
      "<|reserved_special_token_177|>": 182,
      "<|reserved_special_token_178|>": 183,
      "<|reserved_special_token_179|>": 184,
      "<|reserved_special_token_180|>": 185,
      "<|reserved_special_token_181|>": 186,
      "<|reserved_special_token_182|>": 187,
      "<|reserved_special_token_183|>": 188,
      "<|reserved_special_token_184|>": 189,
      "<|reserved_special_token_185|>": 190,
      "<|reserved_special_token_186|>": 191,
      "<|reserved_special_token_187|>": 192,
      "<|reserved_special_token_188|>": 193,
      "<|reserved_special_token_189|>": 194,
      "<|reserved_special_token_190|>": 195,
      "<|reserved_special_token_191|>": 196,
      "<|reserved_special_token_192|>": 197,
      "<|reserved_special_token_193|>": 198,
      "<|reserved_special_token_194|>": 199,
      "<|reserved_special_token_195|>": 200,
      "<|reserved_special_token_196|>": 201,
      "<|reserved_special_token_197|>": 202,
      "<|reserved_special_token_198|>": 203,
      "<|reserved_special_token_199|>": 204,
      "<|reserved_special_token_200|>": 205,
      "<|reserved_special_token_201|>": 206,
      "<|reserved_special_token_202|>": 207,
      "<|reserved_special_token_203|>": 208,
      "<|reserved_special_token_204|>": 209,
      "<|reserved_special_token_205|>": 210,
      "<|reserved_special_token_206|>": 211,
      "<|reserved_special_token_207|>": 212,
      "<|reserved_special_token_208|>": 213,
      "<|reserved_special_token_209|>": 214,
      "<|reserved_special_token_210|>": 215,
      "<|reserved_special_token_211|>": 216,
      "<|reserved_special_token_212|>": 217,
      "<|reserved_special_token_213|>": 218,
      "<|reserved_special_token_214|>": 219,
      "<|reserved_special_token_215|>": 220,
      "<|reserved_special_token_216|>": 221,
      "<|reserved_special_token_217|>": 222,
      "<|reserved_special_token_218|>": 223,
      "<|reserved_special_token_219|>": 224,
      "<|reserved_special_token_220|>": 225,
      "<|reserved_special_token_221|>": 226,
      "<|reserved_special_token_222|>": 227,
      "<|reserved_special_token_223|>": 228,
      "<|reserved_special_token_224|>": 229,
      "<|reserved_special_token_225|>": 230,
      "<|reserved_special_token_226|>": 231,
      "<|reserved_special_token_227|>": 232,
      "<|reserved_special_token_228|>": 233,
      "<|reserved_special_token_229|>": 234,
      "<|reserved_special_token_230|>": 235,
      "<|reserved_special_token_231|>": 236,
      "<|reserved_special_token_232|>": 237,
      "<|reserved_special_token_233|>": 238,
      "<|reserved_special_token_234|>": 239,
      "<|reserved_special_token_235|>": 240,
      "<|reserved_special_token_236|>": 241,
      "<|reserved_special_token_237|>": 242,
      "<|reserved_special_token_238|>": 243,
      "<|reserved_special_token_239|>": 244,
      "<|reserved_special_token_240|>": 245,
      "<|reserved_special_token_241|>": 246,
      "<|reserved_special_token_242|>": 247,
      "<|reserved_special_token_243|>": 248,
      "<|reserved_special_token_244|>": 249,
      "<|reserved_special_token_245|>": 250,
      "<|reserved_special_token_246|>": 251,
      "<|reserved_special_token_247|>": 252,
      "<|reserved_special_token_248|>": 253,
      "<|reserved_special_token_249|>": 254,
      "<|reserved_special_token_250|>": 255,
      "!": 256,
      "\"": 257,
      "#": 258,
      "$": 259,
      "%": 260,
      "&": 261,
      "'": 262,
      "(": 263,
      ")": 264,
      "*": 265,
      "+": 266,
      ",": 267,
      "-": 268,
      ".": 269,
      "/": 270,
      "0": 271,
      "1": 272,
      "2": 273,
      "3": 274,
      "4": 275,
      "5": 276,
      "6": 277,
      "7": 278,
      "8": 279,
      "9": 280,
      ":": 281,
      ";": 282,
      "<": 283,
      "=": 284,
      ">": 285,
      "?": 286,
      "@": 287,
      "A": 288,
      "B": 289,
      "C": 290,
      "D": 291,
      "E": 292,
      "F": 293,
      "G": 294,
      "H": 295,
      "I": 296,
      "J": 297,
      "K": 298,
      "L": 299,
      "M": 300,
      "N": 301,
      "O": 302,
      "P": 303,
      "Q": 304,
      "R": 305,
      "S": 306,
      "T": 307,
      "U": 308,
      "V": 309,
      "W": 310,
      "X": 311,
      "Y": 312,
      "Z": 313,
      "[": 314,
      "\\": 315,
      "]": 316,
      "^": 317,
      "_": 318,
      "`": 319,
      "a": 320,
      "b": 321,
      "c": 322,
      "d": 323,
      "e": 324,
      "f": 325,
      "g": 326,
      "h": 327,
      "i": 328,
      "j": 329,
      "k": 330,
      "l": 331,
      "m": 332,
      "n": 333,
      "o": 334,
      "p": 335,
      "q": 336,
      "r": 337,
      "s": 338,
      "t": 339,
      "u": 340,
      "v": 341,
      "w": 342,
      "x": 343,
      "y": 344,
      "z": 345,
      "|": 346,
      "}": 347,
      "~": 348,
      "¡": 349,
      "¢": 350,
      "£": 351,
      "¤": 352,
      "¥": 353,
      "¦": 354,
      "§": 355,
      "¨": 356,
      "©": 357,
      "ª": 358,
      "«": 359,
      "¬": 360,
      "®": 361,
      "¯": 362,
      "°": 363,
      "±": 364,
      "²": 365,
      "³": 366,
      "´": 367,
      "µ": 368,
      "¶": 369,
      "·": 370,
      "¸": 371,
      "¹": 372,
      "º": 373,
      "»": 374,
      "¼": 375,
      "½": 376,
      "¾": 377,
      "¿": 378,
      "Â": 379,
      "Ã": 380,
      "Ä": 381,
      "Å": 382,
      "Æ": 383,
      "Ç": 384,
      "È": 385,
      "É": 386,
      "Ê": 387,
      "Ë": 388,
      "Ì": 389,
      "Í": 390,
      "Î": 391,
      "Ï": 392,
      "Ð": 393,
      "Ñ": 394,
      "Ò": 395,
      "Ó": 396,
      "Ô": 397,
      "Õ": 398,
      "Ö": 399,
      "×": 400,
      "Ø": 401,
      "Ù": 402,
      "Ú": 403,
      "Û": 404,
      "Ü": 405,
      "Ý": 406,
      "Þ": 407,
      "ß": 408,
      "à": 409,
      "á": 410,
      "â": 411,
      "ã": 412,
      "ä": 413,
      "å": 414,
      "æ": 415,
      "ç": 416,
      "è": 417,
      "é": 418,
      "ê": 419,
      "ë": 420,
      "ì": 421,
      "í": 422,
      "î": 423,
      "ï": 424,
      "ð": 425,
      "ñ": 426,
      "ó": 427,
      "ô": 428,
      "ĉ": 429,
      "Ċ": 430,
      "Ġ": 431,
      "Ģ": 432,
      "ģ": 433,
      "Ĥ": 434,
      "ĥ": 435,
      "Ħ": 436,
      "ħ": 437,
      "Ĩ": 438,
      "ĩ": 439,
      "Ī": 440,
      "ī": 441,
      "Ĭ": 442,
      "ĭ": 443,
      "Į": 444,
      "į": 445,
      "İ": 446,
      "ı": 447,
      "Ĳ": 448,
      "ĳ": 449,
      "Ĵ": 450,
      "ĵ": 451,
      "Ķ": 452,
      "ķ": 453,
      "ĸ": 454,
      "Ĺ": 455,
      "ĺ": 456,
      "Ļ": 457,
      "ļ": 458,
      "Ľ": 459,
      "ľ": 460,
      "Ŀ": 461,
      "ŀ": 462,
      "Ł": 463,
      "ł": 464,
      "Ń": 465,
      "Ġt": 466,
      "Ġa": 467,
      "he": 468,
      "in": 469,
      "re": 470,
      "Ġthe": 471,
      "on": 472,
      "er": 473,
      "Ġo": 474,
      "at": 475,
      "Ġs": 476,
      "en": 477,
      "Ġc": 478,
      "es": 479,
      "Ġw": 480,
      "is": 481,
      "nd": 482,
      "it": 483,
      "or": 484,
      "Ġp": 485,
      "al": 486,
      "Ġb": 487,
      "ed": 488,
      "an": 489,
      "Ġof": 490,
      "Ġf": 491,
      "ing": 492,
      "Ġin": 493,
      "ou": 494,
      "ar": 495,
      "Ġm": 496,
      "Ġand": 497,
      "Ġto": 498,
      "ic": 499,
      "Ġd": 500,
      "ion": 501,
      "le": 502,
      "ro": 503,
      "as": 504,
      "Ġh": 505,
      "ent": 506,
      "Ġth": 507,
      "ct": 508,
      "Ġe": 509,
      "il": 510,
      "Ġre": 511,
      "om": 512,
      "ve": 513,
      "Ġl": 514,
      "st": 515,
      "Ġn": 516,
      ".Ċ": 517,
      "âĢ": 518,
      "ly": 519,
      "Ġbe": 520,
      "Ġis": 521,
      "ĠT": 522,
      "se": 523,
      "ol": 524,
      "Ġg": 525,
      "ation": 526,
      "im": 527,
      "id": 528,
      "et": 529,
      "ut": 530,
      "ce": 531,
      "ot": 532,
      "ur": 533,
      "ra": 534,
      "ch": 535,
      "ow": 536,
      "Ġfor": 537,
      "ĠA": 538,
      "ig": 539,
      "Ġu": 540,
      "ĠS": 541,
      "Ġthat": 542,
      "Ġon": 543,
      "Ġst": 544,
      "ver": 545,
      "Ġy": 546,
      "ir": 547,
      "ĠC": 548,
      "ĠI": 549,
      "ul": 550,
      "ay": 551,
      "am": 552,
      "Ġas": 553,
      "ith": 554,
      "el": 555,
      "ad": 556,
      "Ġpro": 557,
      "her": 558,
      "Ġare": 559,
      "Ġcon": 560,
      "Ġan": 561,
      "Ġwith": 562,
      "if": 563,
      "Ġyou": 564,
      "Ġwh": 565,
      "Ġit": 566,
      "Ġor": 567,
      "Ġal": 568,
      "od": 569,
      "ter": 570,
      "ĠM": 571,
      "ĠThe": 572,
      "Ġ(": 573,
      "ment": 574,
      "ge": 575,
      "th": 576,
      "ĠP": 577,
      "op": 578,
      "ate": 579,
      "ist": 580,
      "ers": 581,
      "Ġde": 582,
      "ess": 583,
      "ill": 584,
      "ies": 585,
      "ab": 586,
      "Ġhe": 587,
      "Ġex": 588,
      "ĠB": 589,
      "us": 590,
      "âĢĻ": 591,
      "ect": 592,
      "Ġwe": 593,
      "ore": 594,
      "Ġcom": 595,
      "Ġsu": 596,
      "ity": 597,
      "est": 598,
      "res": 599,
      "Ġha": 600,
      "ive": 601,
      "ac": 602,
      "um": 603,
      "rom": 604,
      "ĠH": 605,
      "ld": 606,
      "Ġv": 607,
      "os": 608,
      "ke": 609,
      "ant": 610,
      "Ġby": 611,
      "em": 612,
      "qu": 613,
      "iv": 614,
      "ain": 615,
      "ĠW": 616,
      "nt": 617,
      "Ġat": 618,
      "pp": 619,
      "igh": 620,
      "Ġcan": 621,
      "ud": 622,
      "Ġwas": 623,
      "ĠD": 624,
      "Ġfrom": 625,
      "ĠE": 626,
      "Ġch": 627,
      "oc": 628,
      "and": 629,
      "Ġr": 630,
      "ort": 631,
      "ĠR": 632,
      "Ġne": 633,
      "ial": 634,
      "ĠF": 635,
      "Ġse": 636,
      "ure": 637,
      "ĠâĢ": 638,
      "un": 639,
      "Ġnot": 640,
      "Ġle": 641,
      "ical": 642,
      "art": 643,
      "ĠG": 644,
      "ĠN": 645,
      "Ġhave": 646,
      "ri": 647,
      "og": 648,
      "ĠL": 649,
      "Ġsh": 650,
      "Ġen": 651,
      "Ġsp": 652,
      "Ġthis": 653,
      "pt": 654,
      "ight": 655,
      "Ġwor": 656,
      "Ġab": 657,
      "ich": 658,
      "rou": 659,
      "all": 660,
      "red": 661,
      "âĢĻs": 662,
      "ions": 663,
      "ould": 664,
      "ost": 665,
      "ther": 666,
      "our": 667,
      "gh": 668,
      "The": 669,
      "ome": 670,
      "du": 671,
      "Ġim": 672,
      "ated": 673,
      "20": 674,
      "per": 675,
      "ine": 676,
      "Ġus": 677,
      "Ġpl": 678,
      "ag": 679,
      "out": 680,
      "ard": 681,
      "act": 682,
      "Ġtheir": 683,
      "ell": 684,
      "ff": 685,
      "ide": 686,
      "Ġint": 687,
      "pl": 688,
      "ĠO": 689,
      "ans": 690,
      "ear": 691,
      "ast": 692,
      "age": 693,
      "ak": 694,
      "ust": 695,
      "Ġyour": 696,
      "Ġwhich": 697,
      "Ġk": 698,
      "Ġwhe": 699,
      "ĠJ": 700,
      "ec": 701,
      "Ġthey": 702,
      "ous": 703,
      "iz": 704,
      "ĠU": 705,
      "ood": 706,
      "Ġad": 707,
      "ult": 708,
      "Ġall": 709,
      "Ġwill": 710,
      "Ġcont": 711,
      "ib": 712,
      "Ġinc": 713,
      "end": 714,
      "cc": 715,
      "ĠIn": 716,
      "ru": 717,
      "Ġdis": 718,
      "Ġcomp": 719,
      "âĢĿ": 720,
      "ap": 721,
      "Ġmore": 722,
      "Ġres": 723,
      "ong": 724,
      "19": 725,
      "ip": 726,
      "vel": 727,
      "ia": 728,
      "ations": 729,
      "Ġhas": 730,
      "ew": 731,
      "ere": 732,
      "so": 733,
      "Ġdo": 734,
      "orm": 735,
      "ary": 736,
      "ater": 737,
      "able": 738,
      "are": 739,
      "ence": 740,
      "ĠTh": 741,
      "ild": 742,
      "Ġman": 743,
      "Ġcl": 744,
      "ual": 745,
      "Ġother": 746,
      "ks": 747,
      "Ġbut": 748,
      "ry": 749,
      "Ġwere": 750,
      "ind": 751,
      "Ġper": 752,
      "ĠâĢľ": 753,
      "ep": 754,
      "ents": 755,
      "Ġimp": 756,
      "Ġte": 757,
      "ance": 758,
      "ach": 759,
      "Ġme": 760,
      "Ġalso": 761,
      "Ġone": 762,
      "ose": 763,
      "reat": 764,
      "ign": 765,
      "ake": 766,
      "ress": 767,
      "ass": 768,
      "'s": 769,
      "ase": 770,
      "av": 771,
      "au": 772,
      "Ġj": 773,
      "Ġso": 774,
      "ction": 775,
      "ition": 776,
      "Ġout": 777,
      "ice": 778,
      "Ġun": 779,
      "ber": 780,
      "one": 781,
      "Ġapp": 782,
      "ime": 783,
      "very": 784,
      "Ġar": 785,
      "Ġpart": 786,
      "Ġstud": 787,
      "Ġabout": 788,
      "ord": 789,
      "ace": 790,
      "Ġev": 791,
      "ens": 792,
      "ory": 793,
      "ount": 794,
      "ish": 795,
      "ok": 796,
      "ire": 797,
      "ĠSt": 798,
      "Ġwho": 799,
      "00": 800,
      "Ġpe": 801,
      "ame": 802,
      "ack": 803,
      "Ġinf": 804,
      "Ġsy": 805,
      "Ġhis": 806,
      "Ġcomm": 807,
      "ors": 808,
      "ue": 809,
      "ub": 810,
      "Ġthem": 811,
      "Ġsc": 812,
      "ite": 813,
      "ang": 814,
      "ces": 815,
      "ike": 816,
      "ĠK": 817,
      "ound": 818,
      "ree": 819,
      "olog": 820,
      "Ġpre": 821,
      "now": 822,
      "low": 823,
      "Ġbec": 824,
      "Ġup": 825,
      "ĠIt": 826,
      "ric": 827,
      "Ġmay": 828,
      "Ġqu": 829,
      "iff": 830,
      "Ġthan": 831,
      "ie": 832,
      "ile": 833,
      "Ġ\"": 834,
      "ays": 835,
      "ople": 836,
      "Ġrec": 837,
      "Ġsome": 838,
      "Ġyear": 839,
      "ail": 840,
      "ates": 841,
      "ĠCh": 842,
      "Ġbeen": 843,
      "Ġwhen": 844,
      "nder": 845,
      "Ġthere": 846,
      "ings": 847,
      "ian": 848,
      "Ġits": 849,
      "mer": 850,
      "Ġinto": 851,
      "rit": 852,
      "ren": 853,
      "ough": 854,
      "Ġgo": 855,
      "Ġwork": 856,
      "Ġtra": 857,
      "Ġtime": 858,
      "Ġag": 859,
      "ph": 860,
      "Ġover": 861,
      "ĠThis": 862,
      "Ġdiff": 863,
      "Ġthese": 864,
      "erv": 865,
      "vers": 866,
      "te": 867,
      "Ġhow": 868,
      "Ġpeople": 869,
      "Ġro": 870,
      "ons": 871,
      "ally": 872,
      "rough": 873,
      "ĠV": 874,
      "lud": 875,
      "ause": 876,
      "Ġcons": 877,
      "Ġuse": 878,
      "ond": 879,
      "Ġcol": 880,
      "ific": 881,
      "Ġtr": 882,
      "ms": 883,
      "Ġra": 884,
      "ll": 885,
      "tern": 886,
      "Ġour": 887,
      "ove": 888,
      "Ġbet": 889,
      "Ġhad": 890,
      "we": 891,
      "Ġact": 892,
      "alth": 893,
      "ys": 894,
      "int": 895,
      "Ġmost": 896,
      "Ġlike": 897,
      "ities": 898,
      "irst": 899,
      "Ġknow": 900,
      "Ġunder": 901,
      "lic": 902,
      "Ġsa": 903,
      "Ġbl": 904,
      "ments": 905,
      "lect": 906,
      "Ġacc": 907,
      "row": 908,
      "les": 909,
      "Ġdes": 910,
      "ject": 911,
      "ning": 912,
      "ious": 913,
      "ĠY": 914,
      "ook": 915,
      "velop": 916,
      "Ġwould": 917,
      "stem": 918,
      "ffect": 919,
      "Ġneed": 920,
      "Ġnew": 921,
      "Ġtw": 922,
      "Ġrel": 923,
      "Ġsuch": 924,
      ").": 925,
      "201": 926,
      "Ġrep": 927,
      "Ġif": 928,
      "Ġchild": 929,
      "ient": 930,
      "Ġhel": 931,
      "Ġgen": 932,
      "Ġinclud": 933,
      "ob": 934,
      "Ġany": 935,
      "ational": 936,
      "cess": 937,
      "ative": 938,
      "ple": 939,
      "hed": 940,
      "ular": 941,
      "Ġpr": 942,
      "Ġhelp": 943,
      "Ġwhat": 944,
      "ced": 945,
      "Ġph": 946,
      "Ġused": 947,
      "yp": 948,
      "Ġprodu": 949,
      "ating": 950,
      "Ġonly": 951,
      "ool": 952,
      "ov": 953,
      "Ġind": 954,
      "200": 955,
      "Ġprov": 956,
      "Ġno": 957,
      "Ġmany": 958,
      "Ġam": 959,
      "Ġdevelop": 960,
      "Ġoff": 961,
      "Ġthrough": 962,
      "Ġfirst": 963,
      "Ġfe": 964,
      "Ġspec": 965,
      "),": 966,
      "ath": 967,
      "ĠUn": 968,
      "fter": 969,
      "Ġac": 970,
      "ise": 971,
      "round": 972,
      "ark": 973,
      "oss": 974,
      "iet": 975,
      "ics": 976,
      "Ġreg": 977,
      "Ġem": 978,
      "uc": 979,
      "uring": 980,
      "Ġexp": 981,
      "Ġpo": 982,
      "ne": 983,
      "Ġdiffere": 984,
      "ts": 985,
      "ful": 986,
      "Ġtwo": 987,
      "Ġsystem": 988,
      "rib": 989,
      "erm": 990,
      "oth": 991,
      "eth": 992,
      "iss": 993,
      "hen": 994,
      "ink": 995,
      "ied": 996,
      "rop": 997,
      "Ġob": 998,
      "ility": 999,
      "als": 1000,
      "old": 1001,
      "Ġdec": 1002,
      "Ġass": 1003,
      "ased": 1004,
      "ible": 1005,
      "18": 1006,
      "ĠâĢĵ": 1007,
      "Ġatt": 1008,
      "Ġadd": 1009,
      "ange": 1010,
      "ten": 1011,
      "Ġsur": 1012,
      "Ġshould": 1013,
      "ower": 1014,
      "ures": 1015,
      "arch": 1016,
      "ife": 1017,
      "Ġwell": 1018,
      "ĠHe": 1019,
      "fore": 1020,
      "ween": 1021,
      "ble": 1022,
      "10": 1023,
      "ert": 1024,
      "ract": 1025,
      "In": 1026,
      "Ġsupp": 1027,
      "Ġfl": 1028,
      "Ġrem": 1029,
      "Ġwater": 1030,
      "ng": 1031,
      "ram": 1032,
      "Ġ-": 1033,
      "aw": 1034,
      "own": 1035,
      "Ġinv": 1036,
      "Ġsub": 1037,
      "Ġhealth": 1038,
      "Ġco": 1039,
      "Ġyears": 1040,
      "gan": 1041,
      "Ġbetween": 1042,
      "Ġsm": 1043,
      "sel": 1044,
      "ade": 1045,
      "ution": 1046,
      "Ġhigh": 1047,
      "hes": 1048,
      "cy": 1049,
      "?Ċ": 1050,
      "Ġcould": 1051,
      "Ġpres": 1052,
      "its": 1053,
      "Ġwhere": 1054,
      "ick": 1055,
      "ever": 1056,
      "Ġtrans": 1057,
      "Ġmake": 1058,
      "ants": 1059,
      ":Ċ": 1060,
      "ily": 1061,
      "wn": 1062,
      "Ġrese": 1063,
      "Ġget": 1064,
      "uch": 1065,
      "xt": 1066,
      "Ġpers": 1067,
      "Ġbu": 1068,
      "ss": 1069,
      "form": 1070,
      "chool": 1071,
      "Ġimport": 1072,
      "ology": 1073,
      "chn": 1074,
      "ural": 1075,
      "ience": 1076,
      "Ġher": 1077,
      "ident": 1078,
      "Ġear": 1079,
      "Ġmod": 1080,
      "Ġform": 1081,
      "Ġinter": 1082,
      "ting": 1083,
      "ited": 1084,
      "Ġpol": 1085,
      "Ġnum": 1086,
      "Ġinst": 1087,
      "meric": 1088,
      "Ġexam": 1089,
      "ines": 1090,
      "ivers": 1091,
      "ins": 1092,
      "Ġdisc": 1093,
      "âĢĻt": 1094,
      "land": 1095,
      "Ġdifferent": 1096,
      "ef": 1097,
      "ata": 1098,
      "Ġeffect": 1099,
      "Ġlear": 1100,
      "ont": 1101,
      "Ġfound": 1102,
      "hat": 1103,
      "ness": 1104,
      "ict": 1105,
      "ists": 1106,
      "Ġbecause": 1107,
      "Ġsim": 1108,
      "ually": 1109,
      "Ġcar": 1110,
      "Ġafter": 1111,
      "Ġexper": 1112,
      "Ġlong": 1113,
      "ism": 1114,
      "Ġworld": 1115,
      "Ġlar": 1116,
      "Ġmed": 1117,
      "Ġeven": 1118,
      "gy": 1119,
      "Ġvery": 1120,
      "Ġincre": 1121,
      "Ġthen": 1122,
      "Ġcent": 1123,
      "cept": 1124,
      "Ġjust": 1125,
      "ft": 1126,
      "oy": 1127,
      "ature": 1128,
      "Ġway": 1129,
      "Ġed": 1130,
      "Ġcount": 1131,
      "Ġdet": 1132,
      "Ġtyp": 1133,
      "get": 1134,
      "Ġresp": 1135,
      "Ġhum": 1136,
      "aking": 1137,
      "urn": 1138,
      "Ġinform": 1139,
      "Ġsign": 1140,
      "other": 1141,
      "vent": 1142,
      "ically": 1143,
      "Ġvar": 1144,
      "Ġsee": 1145,
      "ĠAmeric": 1146,
      "Ġke": 1147,
      "Ġgener": 1148,
      "ives": 1149,
      "iew": 1150,
      "Ġref": 1151,
      "Ġthose": 1152,
      "ck": 1153,
      "ollow": 1154,
      "Ġpat": 1155,
      "Ġext": 1156,
      "Ġsoc": 1157,
      "Ġprocess": 1158,
      "Ġresult": 1159,
      "Ġprog": 1160,
      "Ġevery": 1161,
      "Ġpub": 1162,
      "cer": 1163,
      "Ġsaid": 1164,
      "Ġfact": 1165,
      "Ġcall": 1166,
      "Ġchildren": 1167,
      "ases": 1168,
      "arm": 1169,
      "omm": 1170,
      "ues": 1171,
      "Ġbeing": 1172,
      "Ġeach": 1173,
      "Ġgra": 1174,
      "ps": 1175,
      "Ġca": 1176,
      "Ġsec": 1177,
      "Ġloc": 1178,
      "led": 1179,
      "ds": 1180,
      ".âĢĿ": 1181,
      "iron": 1182,
      "ruct": 1183,
      "Ġrequ": 1184,
      "ody": 1185,
      "Ġimportant": 1186,
      "ork": 1187,
      "Ġpartic": 1188,
      "Ġtechn": 1189,
      "ages": 1190,
      "Ġlife": 1191,
      "tle": 1192,
      "Ġdist": 1193,
      "Ġcommun": 1194,
      "Ġset": 1195,
      "Th": 1196,
      "ved": 1197,
      "Ġmon": 1198,
      "ĠAl": 1199,
      "io": 1200,
      "Ġmuch": 1201,
      "Ġshe": 1202,
      "Ġduring": 1203,
      "Ġdef": 1204,
      "Ġdep": 1205,
      "Ġcre": 1206,
      "ĠWe": 1207,
      "Ġent": 1208,
      "ather": 1209,
      "cent": 1210,
      "Ġfam": 1211,
      "Ġart": 1212,
      "ized": 1213,
      "Ġstudents": 1214,
      "imes": 1215,
      "vern": 1216,
      "ward": 1217,
      "Ġlead": 1218,
      "Ġread": 1219,
      "Ġown": 1220,
      "Ġfollow": 1221,
      "Ġfood": 1222,
      ")Ċ": 1223,
      "Ġlevel": 1224,
      "Ġsk": 1225,
      "ices": 1226,
      "ĠPro": 1227,
      "Ġmy": 1228,
      "Ġstudy": 1229,
      "Ġinformation": 1230,
      "gg": 1231,
      "ĠThey": 1232,
      "ĠAs": 1233,
      "Ġaut": 1234,
      "Ġright": 1235,
      "Ġdoes": 1236,
      "Ġsame": 1237,
      "Ġgrow": 1238,
      "ize": 1239,
      "any": 1240,
      "Ġdata": 1241,
      "Ġmade": 1242,
      "ĠRe": 1243,
      "Ġproble": 1244,
      "Ġperson": 1245,
      "Ġfind": 1246,
      "ection": 1247,
      "hip": 1248,
      "Ġgood": 1249,
      "Ġcur": 1250,
      "Ġschool": 1251,
      "Ġav": 1252,
      "Ġmin": 1253,
      "Ġend": 1254,
      "Ġstr": 1255,
      "Ġback": 1256,
      "Ġboth": 1257,
      "ted": 1258,
      "Ġins": 1259,
      "onom": 1260,
      "ĠIf": 1261,
      "Ġdi": 1262,
      "the": 1263,
      "ale": 1264,
      "ality": 1265,
      "ĠAn": 1266,
      "Ġche": 1267,
      "Ġusing": 1268,
      "Ġshow": 1269,
      "und": 1270,
      ".,": 1271,
      "Ġhist": 1272,
      "viron": 1273,
      "Ġpop": 1274,
      "Ġexpl": 1275,
      "Ġcomple": 1276,
      "Ġgrou": 1277,
      "ĠAr": 1278,
      "ĠFor": 1279,
      "Ġbefore": 1280,
      "read": 1281,
      "Ġcor": 1282,
      "Ġgl": 1283,
      "Ġtest": 1284,
      "Ġsmall": 1285,
      "stand": 1286,
      "ivid": 1287,
      "Ġmain": 1288,
      "..": 1289,
      "ially": 1290,
      "iel": 1291,
      "ĠHow": 1292,
      "iversity": 1293,
      "Ġtreat": 1294,
      "Ġbo": 1295,
      "ock": 1296,
      "||": 1297,
      "ined": 1298,
      "inal": 1299,
      "Ġoften": 1300,
      "ince": 1301,
      "Ġagain": 1302,
      "Ġval": 1303,
      "Ġsol": 1304,
      "omen": 1305,
      "Ġless": 1306,
      "Ġbr": 1307,
      "Ġprot": 1308,
      "ars": 1309,
      "der": 1310,
      "ix": 1311,
      "rol": 1312,
      "nce": 1313,
      "Ġwhile": 1314,
      "ĠInd": 1315,
      "ty": 1316,
      "ergy": 1317,
      "imate": 1318,
      "Ġposs": 1319,
      "Ġdise": 1320,
      "ien": 1321,
      "Ġday": 1322,
      "Ġtake": 1323,
      "Ġstate": 1324,
      "ex": 1325,
      "ished": 1326,
      "Ġlit": 1327,
      "Ġresearch": 1328,
      "ute": 1329,
      "15": 1330,
      "ax": 1331,
      "akes": 1332,
      "Ġocc": 1333,
      "Ġec": 1334,
      "Ġnumber": 1335,
      "Ġserv": 1336,
      "Ġnow": 1337,
      "ral": 1338,
      "Ġris": 1339,
      "Ġpower": 1340,
      "ĠSp": 1341,
      "Ġorgan": 1342,
      "oh": 1343,
      "ĠNew": 1344,
      "Ġbody": 1345,
      "12": 1346,
      "Ġfun": 1347,
      "vironment": 1348,
      "ier": 1349,
      "Ġmem": 1350,
      "ulation": 1351,
      "Ġcell": 1352,
      "dition": 1353,
      "Ġvis": 1354,
      "ides": 1355,
      "Ġhim": 1356,
      "Ġactiv": 1357,
      "ury": 1358,
      "iety": 1359,
      "irect": 1360,
      "Ġchar": 1361,
      "iqu": 1362,
      "Ġdesign": 1363,
      "up": 1364,
      "ĠSc": 1365,
      "Ġhand": 1366,
      "Ġhuman": 1367,
      "Ġclass": 1368,
      "Ġaround": 1369,
      "air": 1370,
      "Ġredu": 1371,
      "Ġsupport": 1372,
      "199": 1373,
      "iving": 1374,
      "Ġdown": 1375,
      "Ġbel": 1376,
      "ves": 1377,
      "ered": 1378,
      "Ġthree": 1379,
      "hers": 1380,
      "Ġcommon": 1381,
      "ters": 1382,
      "ital": 1383,
      "Ġmust": 1384,
      "Ġconf": 1385,
      "Ġstart": 1386,
      "ger": 1387,
      ").Ċ": 1388,
      "ah": 1389,
      "Ġlook": 1390,
      "ium": 1391,
      "ven": 1392,
      "uss": 1393,
      "Ġest": 1394,
      "aj": 1395,
      "Ġelect": 1396,
      "Ġcle": 1397,
      "Ġpoint": 1398,
      "âĢĶ": 1399,
      "rent": 1400,
      "-b": 1401,
      "ave": 1402,
      "Ġgreat": 1403,
      "acter": 1404,
      "day": 1405,
      "Ġplan": 1406,
      "ving": 1407,
      ",âĢĿ": 1408,
      "Ġgovern": 1409,
      "ains": 1410,
      "This": 1411,
      "ross": 1412,
      "Ġlarge": 1413,
      "cl": 1414,
      "Ġser": 1415,
      "Ġdid": 1416,
      "ĠBut": 1417,
      "Ġexample": 1418,
      "Ġreport": 1419,
      "Ġcare": 1420,
      "Ġland": 1421,
      "Ġwrit": 1422,
      "self": 1423,
      "gen": 1424,
      "rain": 1425,
      "ional": 1426,
      "ouse": 1427,
      "Ġcontin": 1428,
      "ron": 1429,
      "itions": 1430,
      "17": 1431,
      "Ġop": 1432,
      "ull": 1433,
      "anc": 1434,
      "-s": 1435,
      "000": 1436,
      "ared": 1437,
      "ĠYou": 1438,
      "orn": 1439,
      "Ġallow": 1440,
      "Ġincluding": 1441,
      "âĢĵ": 1442,
      "Ġequ": 1443,
      "Ġadv": 1444,
      "Ġconst": 1445,
      "ee": 1446,
      "Ġunderstand": 1447,
      "com": 1448,
      "way": 1449,
      "Ġmet": 1450,
      "ĠThere": 1451,
      "Ġeduc": 1452,
      "ash": 1453,
      "Ġbuild": 1454,
      "eg": 1455,
      "Ġthough": 1456,
      "ĠâĢĺ": 1457,
      "Ġret": 1458,
      "Ġdr": 1459,
      "Ġcour": 1460,
      "Ġcalled": 1461,
      "outh": 1462,
      "ner": 1463,
      "iven": 1464,
      "iver": 1465,
      "Ġpract": 1466,
      "aterial": 1467,
      "Ġknown": 1468,
      "Ġbeh": 1469,
      "ividual": 1470,
      "Ġsom": 1471,
      "Ġstill": 1472,
      "Ġpublic": 1473,
      "ired": 1474,
      "els": 1475,
      "ĠAnd": 1476,
      "ential": 1477,
      "ids": 1478,
      "Ġeas": 1479,
      "Ġquest": 1480,
      "iod": 1481,
      "Ġgu": 1482,
      "oms": 1483,
      "Ġplace": 1484,
      "inc": 1485,
      "ries": 1486,
      "oci": 1487,
      "ider": 1488,
      "osed": 1489,
      "Ġide": 1490,
      "ected": 1491,
      "16": 1492,
      "de": 1493,
      "Ġappro": 1494,
      "Ġthink": 1495,
      "Ġmight": 1496,
      "ization": 1497,
      "itive": 1498,
      "Ġgre": 1499,
      "âĢľ": 1500,
      "erest": 1501,
      "Ġmat": 1502,
      "lish": 1503,
      "Ġfew": 1504,
      "Ġcaus": 1505,
      "ĠThese": 1506,
      "ĠWh": 1507,
      "Ġtem": 1508,
      "raph": 1509,
      "ination": 1510,
      "Ġchang": 1511,
      "Ġpresent": 1512,
      "Ġstand": 1513,
      "ank": 1514,
      "eng": 1515,
      "ources": 1516,
      "Ġenvironment": 1517,
      "Ġwithin": 1518,
      "Ġdem": 1519,
      "ĠIs": 1520,
      "Ġenergy": 1521,
      "Ġchange": 1522,
      "bers": 1523,
      "Ġindividual": 1524,
      "ption": 1525,
      ".\"": 1526,
      "Ġpur": 1527,
      "ording": 1528,
      "ration": 1529,
      "Ġproduct": 1530,
      "oun": 1531,
      "Ġwant": 1532,
      "me": 1533,
      "Ġwithout": 1534,
      "ived": 1535,
      "ĠEng": 1536,
      "Ġdevelopment": 1537,
      "ense": 1538,
      "ffic": 1539,
      "Ġsym": 1540,
      "Ġphys": 1541,
      "Ġiss": 1542,
      "ior": 1543,
      "ason": 1544,
      "angu": 1545,
      "ethod": 1546,
      "ets": 1547,
      "ertain": 1548,
      "Ġmaterial": 1549,
      "Ġlight": 1550,
      "Ġimpro": 1551,
      "line": 1552,
      "Ġcap": 1553,
      "Ġimm": 1554,
      "agn": 1555,
      "Ġplay": 1556,
      "Ġprof": 1557,
      "tt": 1558,
      "esp": 1559,
      "Ġproject": 1560,
      "Ġair": 1561,
      "Ġpot": 1562,
      "Ġlearn": 1563,
      "Ġident": 1564,
      "man": 1565,
      "Ġben": 1566,
      "Ġdisease": 1567,
      "ĠUniversity": 1568,
      "ĠDe": 1569,
      "less": 1570,
      "Ġpos": 1571,
      "Ġdon": 1572,
      "arent": 1573,
      "iness": 1574,
      "Ġsl": 1575,
      "Ġve": 1576,
      "Ġdirect": 1577,
      "Ġbre": 1578,
      "alk": 1579,
      "Ġeng": 1580,
      "Ġsocial": 1581,
      "Ġsit": 1582,
      "eral": 1583,
      "Ġarea": 1584,
      "bs": 1585,
      "ability": 1586,
      "-c": 1587,
      "Ġanal": 1588,
      "ĠAmerican": 1589,
      "Ġpass": 1590,
      "ton": 1591,
      "ental": 1592,
      "Ġanother": 1593,
      "illion": 1594,
      "Ġmeas": 1595,
      "Ġwomen": 1596,
      "Ġ&": 1597,
      "orth": 1598,
      "ield": 1599,
      "Ġbest": 1600,
      "ians": 1601,
      "rodu": 1602,
      "ological": 1603,
      "Ġhome": 1604,
      "Ġant": 1605,
      "ajor": 1606,
      "ified": 1607,
      "Ġinclude": 1608,
      "Ġbelie": 1609,
      "Ġblood": 1610,
      "Ġet": 1611,
      "30": 1612,
      "ering": 1613,
      "pr": 1614,
      "ug": 1615,
      "erc": 1616,
      "It": 1617,
      "Ġmus": 1618,
      "Ġbas": 1619,
      "Ġlaw": 1620,
      "Ġcult": 1621,
      "ify": 1622,
      "Ġmark": 1623,
      "Ġrisk": 1624,
      "Ġpain": 1625,
      "ained": 1626,
      "atural": 1627,
      "Ġinterest": 1628,
      "14": 1629,
      "ĠCon": 1630,
      "atic": 1631,
      "Ġdesc": 1632,
      "ccess": 1633,
      "Ġcontrol": 1634,
      "Ġrest": 1635,
      "Ġopp": 1636,
      "ently": 1637,
      "Ġbecome": 1638,
      "ĠAd": 1639,
      "Ġlow": 1640,
      "ining": 1641,
      "Ġeconom": 1642,
      "Ġsever": 1643,
      "Ġproper": 1644,
      "az": 1645,
      "ats": 1646,
      "Ġearly": 1647,
      "Ġold": 1648,
      "Ġbetter": 1649,
      "'t": 1650,
      "ource": 1651,
      "Ġmethod": 1652,
      "ern": 1653,
      "Ġpar": 1654,
      "-f": 1655,
      "Ġanim": 1656,
      "ĠHowever": 1657,
      "hor": 1658,
      "Ġess": 1659,
      "arc": 1660,
      "Ġprogram": 1661,
      "Ġmove": 1662,
      "Ġwar": 1663,
      "ways": 1664,
      "Ġleg": 1665,
      "Ġgovernment": 1666,
      "here": 1667,
      "ision": 1668,
      "lished": 1669,
      "ills": 1670,
      "ik": 1671,
      "ĠPh": 1672,
      "gin": 1673,
      "Ġagainst": 1674,
      "Ġmil": 1675,
      "ients": 1676,
      "Ġsecond": 1677,
      "Ġkeep": 1678,
      "Ġtre": 1679,
      "Ġlast": 1680,
      "ĠSh": 1681,
      "Ġhere": 1682,
      "Ġfore": 1683,
      "str": 1684,
      "Ġreal": 1685,
      "Ġhistory": 1686,
      "rist": 1687,
      "to": 1688,
      "ware": 1689,
      "Ġoper": 1690,
      "Ġorder": 1691,
      "Ġcause": 1692,
      "Ġtoo": 1693,
      "Ġele": 1694,
      "lu": 1695,
      "Ġmeans": 1696,
      "Ġoccur": 1697,
      "Ġprovide": 1698,
      "rap": 1699,
      "11": 1700,
      "eed": 1701,
      "Ġmajor": 1702,
      "Ġtop": 1703,
      "ead": 1704,
      "Ġavail": 1705,
      "ories": 1706,
      "Ġgroup": 1707,
      "view": 1708,
      ".âĢĿĊ": 1709,
      "ission": 1710,
      "Ġter": 1711,
      "Ġperform": 1712,
      "ention": 1713,
      "ples": 1714,
      "Ġindu": 1715,
      "Ġparticular": 1716,
      "ards": 1717,
      "Ġfamily": 1718,
      "Ġdev": 1719,
      "icle": 1720,
      "amp": 1721,
      "Ġcurrent": 1722,
      "Ġlearning": 1723,
      "Ġpossible": 1724,
      "Ġperiod": 1725,
      "ĠCl": 1726,
      "ĠâĢĶ": 1727,
      "ĠRes": 1728,
      "use": 1729,
      "Ġaddition": 1730,
      "Ġlangu": 1731,
      "ĠEx": 1732,
      "Ġinvol": 1733,
      "ĠUnited": 1734,
      "par": 1735,
      "Ġsaf": 1736,
      "Ġseveral": 1737,
      "Ġunt": 1738,
      "ograph": 1739,
      "Ġhig": 1740,
      "ised": 1741,
      "Ġsay": 1742,
      "50": 1743,
      "Ġfin": 1744,
      "Ġmean": 1745,
      "Ġnear": 1746,
      "Ġspecies": 1747,
      "Ġable": 1748,
      "Ġ[": 1749,
      "pect": 1750,
      "irc": 1751,
      "Ġpercent": 1752,
      "Ġorig": 1753,
      "Ġbenef": 1754,
      "Ġsignific": 1755,
      "|Ċ": 1756,
      "Ġplant": 1757,
      "Ġcr": 1758,
      "oid": 1759,
      "ĠWhen": 1760,
      "ote": 1761,
      "Ġbus": 1762,
      "Ġhapp": 1763,
      "Ġmen": 1764,
      "13": 1765,
      "Ġcal": 1766,
      "Ġprom": 1767,
      "Ġaffect": 1768,
      "ina": 1769,
      "ogn": 1770,
      "idence": 1771,
      "sc": 1772,
      "Ġcost": 1773,
      "Ġnon": 1774,
      "Ġopen": 1775,
      ".S": 1776,
      "ĠCol": 1777,
      "urop": 1778,
      "Ġlim": 1779,
      "Ġsince": 1780,
      "Ġfeel": 1781,
      "Ġel": 1782,
      "ator": 1783,
      "Ġthings": 1784,
      "Ġscient": 1785,
      "ĠGod": 1786,
      "ane": 1787,
      "Ġmar": 1788,
      "Ġamong": 1789,
      "Ġareas": 1790,
      "ilar": 1791,
      "ĠPl": 1792,
      "What": 1793,
      "ret": 1794,
      "br": 1795,
      "Ġtreatment": 1796,
      "osp": 1797,
      "Ġsays": 1798,
      "ots": 1799,
      "Ġothers": 1800,
      "ĠTo": 1801,
      "though": 1802,
      "port": 1803,
      "Ġcountry": 1804,
      "ended": 1805,
      "ole": 1806,
      "Ġbased": 1807,
      "ĠSe": 1808,
      "ĠZ": 1809,
      "ends": 1810,
      "Ġavailable": 1811,
      "sy": 1812,
      "aper": 1813,
      "Ġprevent": 1814,
      "Ġfollowing": 1815,
      "ling": 1816,
      "omp": 1817,
      "Ġhead": 1818,
      "ĠCan": 1819,
      "Ġtimes": 1820,
      "ĠQ": 1821,
      "Ġfour": 1822,
      "Ġname": 1823,
      "Ġdel": 1824,
      "elf": 1825,
      "Ġfre": 1826,
      "ocus": 1827,
      "Ġcond": 1828,
      "Ġfac": 1829,
      "ames": 1830,
      "cing": 1831,
      "ances": 1832,
      "of": 1833,
      "ĠComm": 1834,
      "Ġcase": 1835,
      "ĠStates": 1836,
      "urther": 1837,
      "ably": 1838,
      "Ġaccess": 1839,
      "Ġwee": 1840,
      "ploy": 1841,
      "Ġage": 1842,
      "Ġfree": 1843,
      "une": 1844,
      "Ġcertain": 1845,
      "Ġstruct": 1846,
      "Ġcome": 1847,
      "Ġmonth": 1848,
      "Ġlo": 1849,
      "Ġproblem": 1850,
      "-p": 1851,
      "We": 1852,
      ",\"": 1853,
      "-d": 1854,
      "ĠAt": 1855,
      "Ġlist": 1856,
      "Ġconn": 1857,
      "Ġobject": 1858,
      "urope": 1859,
      "oint": 1860,
      "Ġlab": 1861,
      "Ġtype": 1862,
      "Ġview": 1863,
      "Ġbi": 1864,
      "Ġnatural": 1865,
      "Ġrun": 1866,
      "Ġpost": 1867,
      "Ġrece": 1868,
      "ww": 1869,
      "ression": 1870,
      "Ġpress": 1871,
      "olution": 1872,
      "hy": 1873,
      "Ġput": 1874,
      "ones": 1875,
      "Ġproblems": 1876,
      "Ġgr": 1877,
      "Ġcreat": 1878,
      "Ġsuccess": 1879,
      "Ġintern": 1880,
      "Ġlevels": 1881,
      "ided": 1882,
      "Ġlocal": 1883,
      "Ġbro": 1884,
      "ggest": 1885,
      "Ġhard": 1886,
      "Ġlittle": 1887,
      "icult": 1888,
      "Ġimpact": 1889,
      "Ġamount": 1890,
      "Ġvol": 1891,
      "Ġassoci": 1892,
      "ope": 1893,
      "Ġsignificant": 1894,
      "work": 1895,
      "Ġcells": 1896,
      "Ġbook": 1897,
      "Ġflow": 1898,
      "Ġbir": 1899,
      "If": 1900,
      "Ġmult": 1901,
      "resent": 1902,
      "ĠCent": 1903,
      "ĠEn": 1904,
      "por": 1905,
      "Ġdue": 1906,
      "Ġfar": 1907,
      "Ġyoung": 1908,
      "Ġlet": 1909,
      "Ġvir": 1910,
      "ething": 1911,
      "Ġmaking": 1912,
      "atory": 1913,
      "__": 1914,
      "ĠAf": 1915,
      "Ġsuggest": 1916,
      "Ġuntil": 1917,
      "oks": 1918,
      "Ġlater": 1919,
      "Ġfocus": 1920,
      "ledge": 1921,
      "Ġshort": 1922,
      "ately": 1923,
      "ĠTe": 1924,
      "ortun": 1925,
      "ither": 1926,
      "uture": 1927,
      "Ġturn": 1928,
      "Ġgiven": 1929,
      "Ġsw": 1930,
      "ĠEurope": 1931,
      "ĠNational": 1932,
      "198": 1933,
      "ication": 1934,
      "stit": 1935,
      "Ġcomput": 1936,
      "ged": 1937,
      "Ġcho": 1938,
      "ured": 1939,
      "Ġbehav": 1940,
      "Ġinvest": 1941,
      "Ġdeterm": 1942,
      "over": 1943,
      "not": 1944,
      "ĠWhat": 1945,
      "ĠChrist": 1946,
      "Ġfunction": 1947,
      "Ġpolit": 1948,
      "ĠBe": 1949,
      "Ġeducation": 1950,
      "Ġhy": 1951,
      "hem": 1952,
      "aken": 1953,
      "Ġlikely": 1954,
      "ĠFr": 1955,
      "Ġdays": 1956,
      "Ġrad": 1957,
      "Ġsystems": 1958,
      "Ġseem": 1959,
      "aps": 1960,
      "Ġheart": 1961,
      "Ġcirc": 1962,
      "Ġ.": 1963,
      "agement": 1964,
      "-m": 1965,
      "25": 1966,
      "Ġalong": 1967,
      "ĠOr": 1968,
      "Ġcomb": 1969,
      "cle": 1970,
      "Ġobs": 1971,
      "Ġconsider": 1972,
      "Ġincrease": 1973,
      "ĠUS": 1974,
      "Ġlanguage": 1975,
      "As": 1976,
      "icro": 1977,
      "Ġresults": 1978,
      "Ġcommunity": 1979,
      "Ġfil": 1980,
      "Ġappear": 1981,
      "Ġsomething": 1982,
      "Ġdeath": 1983,
      "ried": 1984,
      "ĠWor": 1985,
      "Ġcourse": 1986,
      "100": 1987,
      "Ġusually": 1988,
      "ending": 1989,
      "Ġteac": 1990,
      "vious": 1991,
      "Ġtechnology": 1992,
      "ĠOn": 1993,
      "Ġalways": 1994,
      "Ġsing": 1995,
      "face": 1996,
      "ĠAll": 1997,
      "ohn": 1998,
      "Ġconsum": 1999,
      "Ġspecific": 2000,
      "ecially": 2001,
      "Ġrele": 2002,
      "aster": 2003,
      "Ġdra": 2004,
      "ape": 2005,
      "Ġtemper": 2006,
      "Ġdifficult": 2007,
      "ring": 2008,
      "Ġpast": 2009,
      "isc": 2010,
      "Ġclear": 2011,
      "Ġcreate": 2012,
      "Ġsimilar": 2013,
      "Ġauthor": 2014,
      "Ġenc": 2015,
      "Ġwords": 2016,
      "etic": 2017,
      "Ġcharacter": 2018,
      "Ġeffective": 2019,
      "ember": 2020,
      "Ġgive": 2021,
      "Ġworks": 2022,
      "Ġexperience": 2023,
      "Ġconditions": 2024,
      "Ġey": 2025,
      "asing": 2026,
      "Ġspace": 2027,
      "ann": 2028,
      "Ġparent": 2029,
      "Ġneeds": 2030,
      "ators": 2031,
      "Ġexist": 2032,
      "Ġtoday": 2033,
      "ptoms": 2034,
      "Ġill": 2035,
      "Ġcentury": 2036,
      "ours": 2037,
      "Ġpopulation": 2038,
      "Ġ'": 2039,
      "Ġrecord": 2040,
      "Ġcrit": 2041,
      "af": 2042,
      "Ġmillion": 2043,
      "Ġ$": 2044,
      "Ġwhy": 2045,
      "app": 2046,
      "Ġbrain": 2047,
      "Ġline": 2048,
      "Ġcancer": 2049,
      "idd": 2050,
      "Ġvarious": 2051,
      "Ġdescrib": 2052,
      "Ġprofess": 2053,
      "aining": 2054,
      "There": 2055,
      "especially": 2056,
      "Ġhigher": 2057,
      "Ġfuture": 2058,
      "How": 2059,
      "obal": 2060,
      "Ġdiscuss": 2061,
      "Ġdam": 2062,
      "ribut": 2063,
      "iation": 2064,
      "ĠMed": 2065,
      "Ġspecial": 2066,
      "ĠSo": 2067,
      "Ġacross": 2068,
      "rug": 2069,
      "ler": 2070,
      "ruction": 2071,
      "Ġnecess": 2072,
      "ored": 2073,
      "Ġer": 2074,
      "Ġapplic": 2075,
      "Ġchanges": 2076,
      "Ġabove": 2077,
      "Ġnext": 2078,
      "ysis": 2079,
      "ox": 2080,
      "Ġbegin": 2081,
      "Ġcountries": 2082,
      "Ġstrong": 2083,
      "be": 2084,
      "Ġtoget": 2085,
      "Ġtogether": 2086,
      "Ġhowever": 2087,
      "ĠAfric": 2088,
      "Ġprop": 2089,
      "Ġleast": 2090,
      "mit": 2091,
      "Ġtry": 2092,
      "ison": 2093,
      "Ġside": 2094,
      "ĠBrit": 2095,
      "Ġbusiness": 2096,
      "reen": 2097,
      "orts": 2098,
      "Ġmov": 2099,
      "Ġrequire": 2100,
      "ique": 2101,
      "ateg": 2102,
      "Ġask": 2103,
      "âĢĻre": 2104,
      "Ġworking": 2105,
      "Ġimprove": 2106,
      "ilities": 2107,
      "most": 2108,
      "Ġplants": 2109,
      "Ġrespons": 2110,
      "Ġkind": 2111,
      "ĠBl": 2112,
      "Ġestab": 2113,
      "Ġeffects": 2114,
      "Ġcomplete": 2115,
      "ray": 2116,
      "Ġresearc": 2117,
      "atch": 2118,
      "ode": 2119,
      "-t": 2120,
      "oney": 2121,
      "Ġpatients": 2122,
      "aves": 2123,
      "Ġcy": 2124,
      "Ġnever": 2125,
      "selves": 2126,
      "Ġleft": 2127,
      "Ġmot": 2128,
      "St": 2129,
      "ĠEar": 2130,
      "nal": 2131,
      "Ġaway": 2132,
      "Ġtool": 2133,
      "Ġcolle": 2134,
      "omes": 2135,
      "Ġways": 2136,
      "min": 2137,
      "amm": 2138,
      "Ġterm": 2139,
      "Ġsens": 2140,
      "Ġespecially": 2141,
      "-l": 2142,
      "aces": 2143,
      "ym": 2144,
      "Ġenough": 2145,
      "acy": 2146,
      "sw": 2147,
      "let": 2148,
      "Ġkey": 2149,
      "Ġchem": 2150,
      "Ġtru": 2151,
      "Ġprim": 2152,
      "Ġteam": 2153,
      "ilt": 2154,
      "Ġgeneral": 2155,
      "Ġnet": 2156,
      "Ġfull": 2157,
      "Ġstudies": 2158,
      "ales": 2159,
      "Ġinflu": 2160,
      "acc": 2161,
      "oot": 2162,
      "Ġsubject": 2163,
      "ument": 2164,
      "Ġtypes": 2165,
      "Ġcases": 2166,
      "ires": 2167,
      "aching": 2168,
      "alf": 2169,
      "Ġhaving": 2170,
      "Ġrelations": 2171,
      "thing": 2172,
      "iting": 2173,
      "lement": 2174,
      "ush": 2175,
      "Ġgoing": 2176,
      "duct": 2177,
      "oman": 2178,
      "aring": 2179,
      "Ġrole": 2180,
      ",Ċ": 2181,
      "ley": 2182,
      "chie": 2183,
      "Ġlower": 2184,
      "Ġnorm": 2185,
      "Ġstep": 2186,
      "ges": 2187,
      "Ġaccount": 2188,
      "Ġwhether": 2189,
      "ĠGerm": 2190,
      "Ġopt": 2191,
      "ĠWar": 2192,
      "Ġknowledge": 2193,
      "ipp": 2194,
      "24": 2195,
      "ned": 2196,
      "Ġsymptoms": 2197,
      "Ġphysical": 2198,
      "Ġz": 2199,
      "Ġbecame": 2200,
      "ising": 2201,
      "istic": 2202,
      "aim": 2203,
      "Ġprotect": 2204,
      "197": 2205,
      "!Ċ": 2206,
      "Ġconcer": 2207,
      "Ġself": 2208,
      "ĠJohn": 2209,
      "NA": 2210,
      "Ġmind": 2211,
      "Ġrepresent": 2212,
      "Ġfurther": 2213,
      "Ġpred": 2214,
      "ae": 2215,
      "ready": 2216,
      "ification": 2217,
      "Ġsum": 2218,
      "ued": 2219,
      "ency": 2220,
      "apt": 2221,
      "Ġproduction": 2222,
      "Ġhouse": 2223,
      "Ġreason": 2224,
      "Ġmakes": 2225,
      "Ġpolic": 2226,
      "ĠSome": 2227,
      "ables": 2228,
      "Ġcity": 2229,
      "An": 2230,
      "Ġground": 2231,
      "itor": 2232,
      "Ġwr": 2233,
      "side": 2234,
      "Ġlive": 2235,
      "Ġbig": 2236,
      "Ġscience": 2237,
      "atures": 2238,
      "Ġpaper": 2239,
      "Ġchall": 2240,
      "ung": 2241,
      "ĠEnglish": 2242,
      "Ġens": 2243,
      "ery": 2244,
      "Ġquestion": 2245,
      "For": 2246,
      "ott": 2247,
      "//": 2248,
      "cul": 2249,
      "Ġrange": 2250,
      "ĠWorld": 2251,
      "sych": 2252,
      "ĠLe": 2253,
      "Ġfund": 2254,
      "aut": 2255,
      "Ġdig": 2256,
      "ĠWith": 2257,
      "Ġtext": 2258,
      "Ġtoward": 2259,
      "ites": 2260,
      "Ġvalue": 2261,
      "Ġsure": 2262,
      "Ġmodel": 2263,
      "edi": 2264,
      "Ġgrowth": 2265,
      "for": 2266,
      "Ġactivity": 2267,
      "iol": 2268,
      "Ġnut": 2269,
      "bon": 2270,
      "verage": 2271,
      "ird": 2272,
      "Ġindic": 2273,
      "ibility": 2274,
      "ĠGen": 2275,
      "Ġemploy": 2276,
      "Ġseen": 2277,
      "ĠOne": 2278,
      "by": 2279,
      "Ġalready": 2280,
      "Ġquality": 2281,
      "urch": 2282,
      "iple": 2283,
      "Ġeff": 2284,
      "Ġpotential": 2285,
      "Ġgroups": 2286,
      "rel": 2287,
      "ream": 2288,
      "Ġactivities": 2289,
      "Ġbelow": 2290,
      "Ġloss": 2291,
      "Ġfall": 2292,
      "mber": 2293,
      "uation": 2294,
      "Ġstory": 2295,
      "Ġreally": 2296,
      "Ġlot": 2297,
      "Ġstat": 2298,
      "ĠGo": 2299,
      "Ġword": 2300,
      "Ġdone": 2301,
      "erence": 2302,
      "osis": 2303,
      "lo": 2304,
      "Ġwind": 2305,
      "Ġclose": 2306,
      "ĠHealth": 2307,
      "40": 2308,
      "augh": 2309,
      "ĠThat": 2310,
      "Ġoffic": 2311,
      "Ġproducts": 2312,
      "Ġparticip": 2313,
      "Ġresources": 2314,
      "oura": 2315,
      "etimes": 2316,
      "://": 2317,
      "Ġdeveloped": 2318,
      "Ġrather": 2319,
      "Ġfield": 2320,
      "ands": 2321,
      "esc": 2322,
      "Ġdiet": 2323,
      "Ġrecogn": 2324,
      "Ġachie": 2325,
      "ils": 2326,
      "Ġaccording": 2327,
      "Ġeither": 2328,
      "Ġmass": 2329,
      "Ġneg": 2330,
      "overed": 2331,
      "ĠCar": 2332,
      "iam": 2333,
      "unt": 2334,
      "Ġdeg": 2335,
      "ĠIntern": 2336,
      "Ġsingle": 2337,
      "Ġindust": 2338,
      "ival": 2339,
      "Ġabs": 2340,
      "ĠMar": 2341,
      "Ġskills": 2342,
      "Ġevent": 2343,
      ".\"Ċ": 2344,
      "Ġreduce": 2345,
      "fact": 2346,
      "Ġprob": 2347,
      "idered": 2348,
      "Ġbat": 2349,
      "Ġclimate": 2350,
      "Ġtradition": 2351,
      "Ġur": 2352,
      "Ġsource": 2353,
      "Ġphot": 2354,
      "Ġbuilding": 2355,
      "Ġrate": 2356,
      "val": 2357,
      "Ġnational": 2358,
      "Ġsurface": 2359,
      "Ġobserv": 2360,
      "Ġflu": 2361,
      "put": 2362,
      "ĠTr": 2363,
      "amin": 2364,
      "ask": 2365,
      "leep": 2366,
      "Ġdrug": 2367,
      "Ġconcept": 2368,
      "Ġarticle": 2369,
      "Ġmedical": 2370,
      "Ġfive": 2371,
      "Ġinit": 2372,
      "Ġsite": 2373,
      "earch": 2374,
      "Ġissues": 2375,
      "Ġintrodu": 2376,
      "Ġonce": 2377,
      "Ġresearchers": 2378,
      "rams": 2379,
      "Ġfr": 2380,
      "ĠIm": 2381,
      "yn": 2382,
      "196": 2383,
      "ĠAm": 2384,
      "Ġtaken": 2385,
      "ĠSouth": 2386,
      "Ġcollect": 2387,
      "Ġ=": 2388,
      "When": 2389,
      "Ġred": 2390,
      "eter": 2391,
      "rict": 2392,
      "urity": 2393,
      "ER": 2394,
      "Ġwhole": 2395,
      "ivil": 2396,
      "ĠPr": 2397,
      "ĠGe": 2398,
      "Ġquestions": 2399,
      "ivity": 2400,
      "Ġtot": 2401,
      "Ġevidence": 2402,
      "Ġrecomm": 2403,
      "ĠShe": 2404,
      "Ġcut": 2405,
      "Ġdom": 2406,
      "ule": 2407,
      "Ġaddress": 2408,
      "ĠDr": 2409,
      "Ġfail": 2410,
      "Ġconsidered": 2411,
      "ĠNorth": 2412,
      "Ġann": 2413,
      "Ġfrequ": 2414,
      "ĠCal": 2415,
      "ublic": 2416,
      "rect": 2417,
      "fficient": 2418,
      "Ġsize": 2419,
      "Ġwhite": 2420,
      "Ġmeet": 2421,
      "Ġupon": 2422,
      "Ġmembers": 2423,
      "ĠAb": 2424,
      "Ġassociated": 2425,
      "fer": 2426,
      "ĠAmerica": 2427,
      "Ġpressure": 2428,
      "Ġsun": 2429,
      "Ġsent": 2430,
      "ĠBy": 2431,
      "Ġdetail": 2432,
      "roll": 2433,
      "Ġcreated": 2434,
      "ety": 2435,
      "ips": 2436,
      "reme": 2437,
      "Ġdoct": 2438,
      "Ġver": 2439,
      "ĠAss": 2440,
      "Ġwide": 2441,
      "Ġskin": 2442,
      "Ġmarket": 2443,
      "Ġnature": 2444,
      "plic": 2445,
      "Ġincreased": 2446,
      "Ġrelig": 2447,
      "Ġfri": 2448,
      "ights": 2449,
      "Ġtell": 2450,
      "Ġsal": 2451,
      "epend": 2452,
      "Ġthemselves": 2453,
      "Ġcame": 2454,
      "reg": 2455,
      "Ġpolitical": 2456,
      "Ġpay": 2457,
      "ĠMay": 2458,
      "Ġstates": 2459,
      "Ġliving": 2460,
      "Ġhold": 2461,
      "Ġstress": 2462,
      "Ġanimals": 2463,
      "illed": 2464,
      "Ġhistor": 2465,
      "Ġcannot": 2466,
      "Ġpractice": 2467,
      "ensive": 2468,
      "Ġunderstanding": 2469,
      "ournal": 2470,
      "Ġsound": 2471,
      "Ġdest": 2472,
      "Ġreturn": 2473,
      "Ġactually": 2474,
      "ober": 2475,
      "Ġrequired": 2476,
      "Ġlay": 2477,
      "Ġrelated": 2478,
      "Ġopportun": 2479,
      "Ġsimple": 2480,
      "sequ": 2481,
      "iding": 2482,
      "ĠStud": 2483,
      "aced": 2484,
      "oph": 2485,
      "Ġweek": 2486,
      "ibr": 2487,
      "oon": 2488,
      "org": 2489,
      "Ġrelationship": 2490,
      "Ġadult": 2491,
      "âĢ¦": 2492,
      "utions": 2493,
      "Ġengine": 2494,
      "ening": 2495,
      "Ġblack": 2496,
      "Ġhealthy": 2497,
      "Ġneeded": 2498,
      "enn": 2499,
      "itud": 2500,
      "Ġentire": 2501,
      "Ġpurp": 2502,
      "Ġability": 2503,
      "Ġmaterials": 2504,
      "eb": 2505,
      "22": 2506,
      "Ġeconomic": 2507,
      "Ġglobal": 2508,
      "Ġthought": 2509,
      "Ġanalysis": 2510,
      "Ġmaint": 2511,
      "Ġmicro": 2512,
      "Ch": 2513,
      "Ġpublished": 2514,
      "Ġcomplex": 2515,
      "Ġquick": 2516,
      "Ġcondition": 2517,
      "ĠAust": 2518,
      "Ġmodern": 2519,
      "Ġarg": 2520,
      "ĠMan": 2521,
      "Ġprote": 2522,
      "Ġstudent": 2523,
      "yl": 2524,
      "Ġfamil": 2525,
      ".com": 2526,
      "aging": 2527,
      "Ġfactors": 2528,
      "Ġdoc": 2529,
      "Ġparts": 2530,
      "Ġcomes": 2531,
      "Ġansw": 2532,
      "Ġspe": 2533,
      "Ġport": 2534,
      "Ġfat": 2535,
      "Ġidea": 2536,
      "Ġwriting": 2537,
      "ĠRep": 2538,
      "eds": 2539,
      "Ġexperien": 2540,
      "ai": 2541,
      "Ġalmost": 2542,
      "Ġfish": 2543,
      "artment": 2544,
      "olic": 2545,
      "ĠSoc": 2546,
      "Ġprovides": 2547,
      "acks": 2548,
      "194": 2549,
      "ump": 2550,
      "ging": 2551,
      "Ġavoid": 2552,
      "Ġoil": 2553,
      "Ġservices": 2554,
      "Ġexerc": 2555,
      "hib": 2556,
      "chan": 2557,
      "Ġitself": 2558,
      "ney": 2559,
      "hing": 2560,
      "Ġdog": 2561,
      "Ġmanagement": 2562,
      "aged": 2563,
      "Ġvers": 2564,
      "oses": 2565,
      "ened": 2566,
      "ises": 2567,
      "lying": 2568,
      "rad": 2569,
      "ĠSy": 2570,
      "To": 2571,
      "Ġmoney": 2572,
      "itary": 2573,
      "Ġassess": 2574,
      "Ġmor": 2575,
      "ores": 2576,
      "gest": 2577,
      "Al": 2578,
      "Ġreact": 2579,
      "ĠYork": 2580,
      "vere": 2581,
      "Ġcat": 2582,
      "Ġmonths": 2583,
      "Ġweight": 2584,
      "SA": 2585,
      "Ġcoll": 2586,
      "ences": 2587,
      "erve": 2588,
      "uel": 2589,
      "Ġrights": 2590,
      "ĠAct": 2591,
      "Ġnecessary": 2592,
      "go": 2593,
      "Ġapproach": 2594,
      "Ġpath": 2595,
      "Ġmeasure": 2596,
      "Ġhtt": 2597,
      "Ġsam": 2598,
      "Ġarch": 2599,
      "Ġhalf": 2600,
      "Ġsoil": 2601,
      "Ġsuff": 2602,
      "urs": 2603,
      "Ġgas": 2604,
      "Ġsuper": 2605,
      "60": 2606,
      "Ġliter": 2607,
      "Ġmedic": 2608,
      "ĠEarth": 2609,
      "Ġproduce": 2610,
      "Ġparents": 2611,
      "Ġbar": 2612,
      "Ġlink": 2613,
      "23": 2614,
      "usion": 2615,
      "izing": 2616,
      "Ġbegan": 2617,
      "ĠGu": 2618,
      "Wh": 2619,
      "ĠX": 2620,
      "ply": 2621,
      "Ġtook": 2622,
      "ĠComp": 2623,
      "Ġpriv": 2624,
      "Ġarr": 2625,
      "ĠDep": 2626,
      "oll": 2627,
      "onse": 2628,
      "Ġpersonal": 2629,
      "Ġever": 2630,
      "Ġjob": 2631,
      "Ġsoft": 2632,
      "Ġgreen": 2633,
      "Ġconduct": 2634,
      "ĠHis": 2635,
      "ĠState": 2636,
      "abor": 2637,
      "Ġtar": 2638,
      "Ġemer": 2639,
      "nces": 2640,
      "rown": 2641,
      "emic": 2642,
      "irm": 2643,
      "Ġcomputer": 2644,
      "Ġindividuals": 2645,
      "21": 2646,
      "You": 2647,
      "cient": 2648,
      "Ġpattern": 2649,
      "Ġregion": 2650,
      "Ġprinc": 2651,
      "iddle": 2652,
      "Ġcolor": 2653,
      "Ġchemical": 2654,
      "Ġpopular": 2655,
      "Ġsepar": 2656,
      "Ġthroughout": 2657,
      "ĠHist": 2658,
      "iction": 2659,
      "Ġstop": 2660,
      "mb": 2661,
      "Ġge": 2662,
      "ume": 2663,
      "ese": 2664,
      "Ġreading": 2665,
      "Ġyet": 2666,
      "Ġrepl": 2667,
      "ma": 2668,
      "Ġfeed": 2669,
      "utes": 2670,
      "igure": 2671,
      "inter": 2672,
      "abit": 2673,
      "ections": 2674,
      "Ġfarm": 2675,
      "ID": 2676,
      "Ġcop": 2677,
      "Ġincreasing": 2678,
      "ĠCont": 2679,
      "Ġshows": 2680,
      "Ġregard": 2681,
      "ze": 2682,
      "sp": 2683,
      "my": 2684,
      "Ġsociety": 2685,
      "ccording": 2686,
      "Ġtaking": 2687,
      "Ġonline": 2688,
      "Ġaction": 2689,
      "ĠDo": 2690,
      "Ġclaim": 2691,
      "pid": 2692,
      "Ġtherap": 2693,
      "Ġfire": 2694,
      "empt": 2695,
      "erous": 2696,
      "hold": 2697,
      "ĠBritish": 2698,
      "ĠCo": 2699,
      "Ġbur": 2700,
      "-based": 2701,
      "Ġtotal": 2702,
      "-w": 2703,
      "Ġcompany": 2704,
      "Ġrecent": 2705,
      "apan": 2706,
      "Ġcontent": 2707,
      "Ġrul": 2708,
      "Ġsense": 2709,
      "Ġut": 2710,
      "Ġstructure": 2711,
      "ĠJew": 2712,
      "ript": 2713,
      "estern": 2714,
      "ĠNe": 2715,
      "Ġlonger": 2716,
      "Ġprevious": 2717,
      "Ġclean": 2718,
      "anced": 2719,
      "yle": 2720,
      "Ġinteract": 2721,
      "bo": 2722,
      "Ġbuilt": 2723,
      "Ġtemperature": 2724,
      "Ġla": 2725,
      "ches": 2726,
      "ively": 2727,
      "Ġindustry": 2728,
      "Ã©": 2729,
      "Ġsleep": 2730,
      "Ġterms": 2731,
      "Ġtraining": 2732,
      "uck": 2733,
      "Ġservice": 2734,
      "het": 2735,
      "Ġsix": 2736,
      "icles": 2737,
      "iment": 2738,
      "Ġinj": 2739,
      "lor": 2740,
      "itation": 2741,
      "ĠAfter": 2742,
      "ns": 2743,
      "Ġposition": 2744,
      "Ġdiagn": 2745,
      "reng": 2746,
      "Ġtalk": 2747,
      "Ġcaused": 2748,
      "Ġhours": 2749,
      "Ġbehavior": 2750,
      "astic": 2751,
      "Ġschools": 2752,
      "Ġcauses": 2753,
      "Ġmatter": 2754,
      "Ġenvironmental": 2755,
      "Ġheat": 2756,
      "Ġsurv": 2757,
      "Ġtravel": 2758,
      "Ġrev": 2759,
      "Ġheav": 2760,
      "Ġsat": 2761,
      "Ġbreak": 2762,
      "ES": 2763,
      "Ġmach": 2764,
      "ĠCanad": 2765,
      "ulations": 2766,
      "Ġdisord": 2767,
      "minist": 2768,
      "Ġbenefits": 2769,
      "Ġconc": 2770,
      "ĠWhile": 2771,
      "fully": 2772,
      "Ġmeaning": 2773,
      "):": 2774,
      "arr": 2775,
      "lt": 2776,
      "ene": 2777,
      "...": 2778,
      "--": 2779,
      "Ġlives": 2780,
      "Ġce": 2781,
      "Ġcontact": 2782,
      "Ġvari": 2783,
      "aily": 2784,
      "Ġsex": 2785,
      "Ġcheck": 2786,
      "Ġthing": 2787,
      "ows": 2788,
      "Ġeasy": 2789,
      "Ġpositive": 2790,
      "Ġshown": 2791,
      "istance": 2792,
      "Ġprovided": 2793,
      "28": 2794,
      "Ġspread": 2795,
      "lex": 2796,
      "ĠPe": 2797,
      "Ġcontain": 2798,
      "vey": 2799,
      "Ġetc": 2800,
      "ricult": 2801,
      "27": 2802,
      "ropri": 2803,
      "Ġste": 2804,
      "inary": 2805,
      "Ġbring": 2806,
      "Ġtrue": 2807,
      "aff": 2808,
      "Ġsafe": 2809,
      "hood": 2810,
      "ĠResearch": 2811,
      "Ġdesigned": 2812,
      "istics": 2813,
      "Ġprec": 2814,
      "Ġfru": 2815,
      "ĠSchool": 2816,
      "Ġbacter": 2817,
      "Ġmethods": 2818,
      "Ġwild": 2819,
      "Ġincludes": 2820,
      "Ġregular": 2821,
      "ronic": 2822,
      "Ġaverage": 2823,
      ".g": 2824,
      "Ġaccept": 2825,
      "ĠNo": 2826,
      "AT": 2827,
      "ister": 2828,
      "asc": 2829,
      "ĠEm": 2830,
      "aving": 2831,
      "ederal": 2832,
      "ched": 2833,
      "ufact": 2834,
      "Ġvide": 2835,
      "lands": 2836,
      "ster": 2837,
      "rought": 2838,
      "Ġfem": 2839,
      "ĠII": 2840,
      "gar": 2841,
      "ĠIndia": 2842,
      "ĠPar": 2843,
      "Ġdeep": 2844,
      "202": 2845,
      "Ġled": 2846,
      "Ġstandard": 2847,
      "Ġrelative": 2848,
      "Ġlif": 2849,
      "Ġcarbon": 2850,
      "Ġmechan": 2851,
      "Ġreview": 2852,
      "Ġviol": 2853,
      "AR": 2854,
      "26": 2855,
      "Ġearth": 2856,
      "imately": 2857,
      "Ġvariety": 2858,
      "Ġresponse": 2859,
      "Ġsubst": 2860,
      "ners": 2861,
      "Ġgreater": 2862,
      "ades": 2863,
      "Ġtarget": 2864,
      "ĠJapan": 2865,
      "rior": 2866,
      "Ġexc": 2867,
      "ĠInstit": 2868,
      "Ġpoll": 2869,
      "light": 2870,
      "Ġeat": 2871,
      "Ġlove": 2872,
      "Ġmusic": 2873,
      "rast": 2874,
      "Ġsimply": 2875,
      "But": 2876,
      "Ġissue": 2877,
      "Ġmovement": 2878,
      "aries": 2879,
      "atives": 2880,
      "Ġbelieve": 2881,
      "ony": 2882,
      "Ġslow": 2883,
      "abet": 2884,
      "Ġsometimes": 2885,
      "Ġhelps": 2886,
      "Ġreported": 2887,
      "Ġorigin": 2888,
      "Ġoriginal": 2889,
      "ĠSu": 2890,
      "verse": 2891,
      "Ġculture": 2892,
      "Ġface": 2893,
      "Ġpsych": 2894,
      "Ġscientists": 2895,
      "eration": 2896,
      "-in": 2897,
      "Ġwritten": 2898,
      "Ġcompan": 2899,
      "\".": 2900,
      "Ġthreat": 2901,
      "Ġprograms": 2902,
      "amed": 2903,
      "ength": 2904,
      "Ġstreng": 2905,
      "Ġdamage": 2906,
      "know": 2907,
      "Ġevents": 2908,
      "rench": 2909,
      "ĠCO": 2910,
      "osition": 2911,
      "Ġinvolved": 2912,
      "Ġrespect": 2913,
      "wh": 2914,
      "aling": 2915,
      "Ġdoing": 2916,
      "Ġuses": 2917,
      "Ġremov": 2918,
      "arily": 2919,
      "Ġidentify": 2920,
      "Ġsources": 2921,
      "Ġencoura": 2922,
      "ĠKing": 2923,
      "195": 2924,
      "Ġnormal": 2925,
      "Ġdemon": 2926,
      "ials": 2927,
      "new": 2928,
      "duc": 2929,
      "Ġfoods": 2930,
      "Ġoutside": 2931,
      "Ġcompet": 2932,
      "Ġcompon": 2933,
      "ucle": 2934,
      "ban": 2935,
      "aches": 2936,
      "ender": 2937,
      "Ġparticularly": 2938,
      "oor": 2939,
      "191": 2940,
      "rand": 2941,
      "Ġtax": 2942,
      "Ġcamp": 2943,
      "dom": 2944,
      "elling": 2945,
      "Ġemot": 2946,
      "Ġinteg": 2947,
      "Ġelectric": 2948,
      "Ġpoor": 2949,
      "ctions": 2950,
      "Ġbal": 2951,
      "Ġimage": 2952,
      "ĠÂ": 2953,
      "193": 2954,
      "ĠPres": 2955,
      "Ġforms": 2956,
      "Ġessential": 2957,
      "Ġlack": 2958,
      "Ġpict": 2959,
      "Ġensure": 2960,
      "Ġcust": 2961,
      "ĠSec": 2962,
      "Ġvirus": 2963,
      "Ġattention": 2964,
      "uge": 2965,
      "Ġproduced": 2966,
      "Ġbasic": 2967,
      "ĠWill": 2968,
      "Ġchalleng": 2969,
      "ĠAustral": 2970,
      "Ġdeveloping": 2971,
      "Ġforest": 2972,
      "Ġple": 2973,
      "ĠScience": 2974,
      "Ġgenerally": 2975,
      "idge": 2976,
      "Ġrefer": 2977,
      "Ġgrowing": 2978,
      "rie": 2979,
      "Ġextreme": 2980,
      "umb": 2981,
      "Ġpage": 2982,
      "Ġlate": 2983,
      "Ġemb": 2984,
      "ops": 2985,
      "Ġwebs": 2986,
      "oles": 2987,
      "ĠMin": 2988,
      "Ġdeb": 2989,
      "Ġforce": 2990,
      "room": 2991,
      "ief": 2992,
      "Ġfeet": 2993,
      "Ġsust": 2994,
      "Ġserious": 2995,
      "ached": 2996,
      "Ġlat": 2997,
      "Ġimplement": 2998,
      "Ġdispl": 2999,
      "rim": 3000,
      "Ġattempt": 3001,
      "Ġox": 3002,
      "Ġaff": 3003,
      "ĠPer": 3004,
      "Ġshare": 3005,
      "Ġharm": 3006,
      "Ġteachers": 3007,
      "Ġlog": 3008,
      "Ġappl": 3009,
      "Ġap": 3010,
      "ervation": 3011,
      "Ġnetwork": 3012,
      "ming": 3013,
      "Ġconsist": 3014,
      "IN": 3015,
      "osure": 3016,
      "issions": 3017,
      "Ġnumbers": 3018,
      "Ġselect": 3019,
      "Ġcoun": 3020,
      "Ġanimal": 3021,
      "ĠApp": 3022,
      "Ġpatient": 3023,
      "Ġincluded": 3024,
      "ems": 3025,
      "Ġdefin": 3026,
      "Ġsqu": 3027,
      "Ġvisit": 3028,
      "Ġwood": 3029,
      "Ġvacc": 3030,
      "ĠMe": 3031,
      "sh": 3032,
      "Ġcorrect": 3033,
      "Ġmanufact": 3034,
      "Ġdoesn": 3035,
      "osing": 3036,
      "Ġattack": 3037,
      "Ġideas": 3038,
      "isions": 3039,
      "rated": 3040,
      "Ġaware": 3041,
      "Ġmagn": 3042,
      "Ġir": 3043,
      "Ġindepend": 3044,
      "Ġdraw": 3045,
      "80": 3046,
      "Ġsafety": 3047,
      "Ġhyd": 3048,
      "ĠEd": 3049,
      "set": 3050,
      "Ġcontinue": 3051,
      "Ġprobably": 3052,
      "29": 3053,
      "ana": 3054,
      "fect": 3055,
      "Ġseries": 3056,
      "ĠChina": 3057,
      "Ġprep": 3058,
      "raft": 3059,
      "Ġtakes": 3060,
      "Ġgetting": 3061,
      "ography": 3062,
      "ads": 3063,
      "ls": 3064,
      "Ġkids": 3065,
      "Ġdou": 3066,
      "Ġmess": 3067,
      "ribution": 3068,
      "Ġnight": 3069,
      "imum": 3070,
      "ĠCount": 3071,
      "Ġtherefore": 3072,
      "Ġi": 3073,
      "ground": 3074,
      "ĠMany": 3075,
      "Ġmedia": 3076,
      "ĠQu": 3077,
      "ties": 3078,
      "Ġfinanc": 3079,
      "Ġpolicy": 3080,
      "Ġexpress": 3081,
      "Ġveget": 3082,
      "Ġprint": 3083,
      "Ġeasily": 3084,
      "cies": 3085,
      "Ġconcent": 3086,
      "irit": 3087,
      "ĠPre": 3088,
      "Ġ/": 3089,
      "Ġspeed": 3090,
      "Ġsomeone": 3091,
      "Ġinternational": 3092,
      "uth": 3093,
      "oly": 3094,
      "ecause": 3095,
      "Ġthus": 3096,
      "Ġperformance": 3097,
      "Ġdaily": 3098,
      "ĠJan": 3099,
      "Ġ--": 3100,
      "where": 3101,
      "Ġtheory": 3102,
      "Ġcommit": 3103,
      "ĠInt": 3104,
      "Ġinvestig": 3105,
      "pro": 3106,
      "ext": 3107,
      "Ġmother": 3108,
      "Ġlooking": 3109,
      "Ġfa": 3110,
      "Ġcover": 3111,
      "vention": 3112,
      "Ġprimary": 3113,
      "oring": 3114,
      "ension": 3115,
      "iot": 3116,
      "oes": 3117,
      "Ġearl": 3118,
      "Ġsea": 3119,
      "Ġbab": 3120,
      "-h": 3121,
      "Ġdifference": 3122,
      "Ġwall": 3123,
      "Ġcit": 3124,
      "rs": 3125,
      "Ġstarted": 3126,
      "ĠAg": 3127,
      "Ġleaders": 3128,
      "Ġmental": 3129,
      "rew": 3130,
      "IS": 3131,
      "Ġestim": 3132,
      "ino": 3133,
      "Ġquite": 3134,
      "iency": 3135,
      "ius": 3136,
      "asons": 3137,
      "Ġallows": 3138,
      "Ġcross": 3139,
      "On": 3140,
      "Ġago": 3141,
      "ĠBo": 3142,
      "Ġadded": 3143,
      "Ġdiseases": 3144,
      "uary": 3145,
      "haps": 3146,
      "ĠJu": 3147,
      "erson": 3148,
      "Ġinstead": 3149,
      "Ġtraditional": 3150,
      "Ġtown": 3151,
      "erg": 3152,
      "Ġful": 3153,
      "overy": 3154,
      "Ġappropri": 3155,
      "Ġwarm": 3156,
      "Ġsil": 3157,
      "Ġdang": 3158,
      "ĠMore": 3159,
      "Ġtree": 3160,
      "ĠAug": 3161,
      "Ġvit": 3162,
      "pe": 3163,
      "Ġcommunities": 3164,
      "Ġdiv": 3165,
      "Ġinstit": 3166,
      "Ġcivil": 3167,
      "hel": 3168,
      "itude": 3169,
      "Ġeth": 3170,
      "cell": 3171,
      "ancy": 3172,
      "Ġdecre": 3173,
      "Ġdetermine": 3174,
      "na": 3175,
      "Ġbooks": 3176,
      "Ġcompared": 3177,
      "ĠEuropean": 3178,
      "Ġtur": 3179,
      "ington": 3180,
      "Ġcapt": 3181,
      "Ġachieve": 3182,
      "ĠCenter": 3183,
      "Ġtiss": 3184,
      "Ġprogress": 3185,
      "Ġoffer": 3186,
      "ying": 3187,
      "Ġ,": 3188,
      "Ġthous": 3189,
      "Ġpoints": 3190,
      "ror": 3191,
      "Ġinside": 3192,
      "Ġsold": 3193,
      "Ġmultiple": 3194,
      "Ġfav": 3195,
      "Ġtools": 3196,
      ".org": 3197,
      "Ġeval": 3198,
      "ĠPart": 3199,
      "Ġtend": 3200,
      "Ġscientific": 3201,
      "ha": 3202,
      "Ġnation": 3203,
      "inks": 3204,
      "Ġhumans": 3205,
      "Ġreflect": 3206,
      "Ġsou": 3207,
      "Ġcompanies": 3208,
      "Ġreve": 3209,
      "Ġunc": 3210,
      "Ġlarger": 3211,
      "Ġheld": 3212,
      "son": 3213,
      "Ġrout": 3214,
      "Ġestablished": 3215,
      "Ġunique": 3216,
      "iforn": 3217,
      "Ġquickly": 3218,
      "ĠYour": 3219,
      "ceed": 3220,
      "rate": 3221,
      "Ġthird": 3222,
      "Ġ|": 3223,
      "192": 3224,
      "Ġeye": 3225,
      "ellow": 3226,
      "ĠIndian": 3227,
      "ĠEduc": 3228,
      "Ġanswer": 3229,
      "cil": 3230,
      "Ġmilitary": 3231,
      "ounds": 3232,
      "Ġimmedi": 3233,
      "ĠFrench": 3234,
      "Ġtrees": 3235,
      "Ġdirectly": 3236,
      "ĠMost": 3237,
      "Ġinfection": 3238,
      "Ġhighly": 3239,
      "Ġaltern": 3240,
      "ille": 3241,
      "ĠCons": 3242,
      "ĠEl": 3243,
      "anks": 3244,
      "pril": 3245,
      "Ġcritical": 3246,
      "ift": 3247,
      "Ġspeak": 3248,
      "Ġdemonstr": 3249,
      "Ġadditional": 3250,
      "ĠGl": 3251,
      "Ġacid": 3252,
      "Ġdocument": 3253,
      "Ġdry": 3254,
      "mon": 3255,
      "elt": 3256,
      "Ġfront": 3257,
      "term": 3258,
      "Ġnegative": 3259,
      "Ġessay": 3260,
      "omet": 3261,
      "www": 3262,
      "useum": 3263,
      "olar": 3264,
      "Ġgard": 3265,
      "undred": 3266,
      "iers": 3267,
      "Ġsevere": 3268,
      "Ġalthough": 3269,
      "ĠAc": 3270,
      "abetes": 3271,
      "ĠInstitute": 3272,
      "nov": 3273,
      "Ġbirth": 3274,
      "like": 3275,
      "ifornia": 3276,
      "Ġbit": 3277,
      "Ġbehind": 3278,
      "Ġexercise": 3279,
      "Ġactive": 3280,
      "Ġsecurity": 3281,
      "Ġextra": 3282,
      "Ġwrite": 3283,
      "Ġanaly": 3284,
      "Ġdrink": 3285,
      "Ġaspect": 3286,
      "Ġsolar": 3287,
      "Ġclin": 3288,
      "Ġsoon": 3289,
      "Ġproced": 3290,
      "iques": 3291,
      "âĢĻve": 3292,
      "ON": 3293,
      "ĠSch": 3294,
      "Ġcentral": 3295,
      "AN": 3296,
      "joy": 3297,
      "ĠAfrica": 3298,
      "Ġtowards": 3299,
      "Ġhor": 3300,
      "Ġbroad": 3301,
      "Ġhost": 3302,
      "70": 3303,
      "Ġfamilies": 3304,
      "ĠSm": 3305,
      "Ġprior": 3306,
      "ĠWest": 3307,
      "vant": 3308,
      "cean": 3309,
      "-g": 3310,
      "Ġfoot": 3311,
      "ulate": 3312,
      "One": 3313,
      "Ġleading": 3314,
      "Ġbad": 3315,
      "Ġaud": 3316,
      "Ġhar": 3317,
      "Ġtri": 3318,
      "gency": 3319,
      "oming": 3320,
      "Ġvalues": 3321,
      "Ġpurpose": 3322,
      "ĠJes": 3323,
      "Ġaim": 3324,
      "Ġobt": 3325,
      "Ġquant": 3326,
      "thern": 3327,
      "Ġsupply": 3328,
      "ĠArt": 3329,
      "ĠDepartment": 3330,
      "Ġwalk": 3331,
      "den": 3332,
      "Ġtransport": 3333,
      "âĢĻll": 3334,
      "Ġstay": 3335,
      ";Ċ": 3336,
      "itis": 3337,
      "aly": 3338,
      "35": 3339,
      "Ġuseful": 3340,
      "ĠOf": 3341,
      "OR": 3342,
      "Ġshall": 3343,
      "ĠMarch": 3344,
      "isms": 3345,
      "Ġdoctor": 3346,
      "Ġwent": 3347,
      "Ġbeginning": 3348,
      "Ġlabor": 3349,
      "uries": 3350,
      "rig": 3351,
      "yond": 3352,
      "Ġcustom": 3353,
      "Ġprotein": 3354,
      "ĠOct": 3355,
      "ĠGerman": 3356,
      "Ġaccur": 3357,
      "Ġfram": 3358,
      "formation": 3359,
      "Ġteaching": 3360,
      "âĢ¢": 3361,
      "ĠRuss": 3362,
      "rote": 3363,
      "Ġstra": 3364,
      "Ġexpect": 3365,
      "yr": 3366,
      "Ġhabit": 3367,
      "Ġsus": 3368,
      "ĠRec": 3369,
      "Ġseems": 3370,
      "Ġsituation": 3371,
      "Ġdecl": 3372,
      "hern": 3373,
      "Ġlimited": 3374,
      "Ġwhose": 3375,
      "90": 3376,
      "ilos": 3377,
      "Ġfeatures": 3378,
      "Ġcontribut": 3379,
      "Ġcard": 3380,
      "He": 3381,
      "Ġhands": 3382,
      "ĠCalifornia": 3383,
      "Ġcapital": 3384,
      "Ġvideo": 3385,
      "ĠUs": 3386,
      "lation": 3387,
      "ĠChild": 3388,
      "bor": 3389,
      "ĠOther": 3390,
      "ĠAfrican": 3391,
      "Ġelements": 3392,
      "rition": 3393,
      "mar": 3394,
      "ĠHar": 3395,
      "ĠNot": 3396,
      "iber": 3397,
      "Ġones": 3398,
      "Ġinfluence": 3399,
      "omb": 3400,
      "Ġbase": 3401,
      "Ġmount": 3402,
      "____": 3403,
      "190": 3404,
      "Ġsoftware": 3405,
      "Ġfight": 3406,
      "Ġsearch": 3407,
      "Ġsection": 3408,
      "iter": 3409,
      "Ġstrateg": 3410,
      "lection": 3411,
      "Ġworkers": 3412,
      "uman": 3413,
      "-y": 3414,
      "Ġthinking": 3415,
      "Ġcontains": 3416,
      "Ġpack": 3417,
      "Ġlost": 3418,
      "rogen": 3419,
      "Ġhttp": 3420,
      "Ġhot": 3421,
      "itch": 3422,
      "Ġlength": 3423,
      "bol": 3424,
      "cial": 3425,
      "Ġminutes": 3426,
      "ĠJune": 3427,
      "Ġfinancial": 3428,
      "Ġancient": 3429,
      "So": 3430,
      "IC": 3431,
      "hens": 3432,
      "ĠSept": 3433,
      "Ġmom": 3434,
      "Ġrequires": 3435,
      "Ġexact": 3436,
      "Ġrates": 3437,
      "ĠGree": 3438,
      "inct": 3439,
      "Ġblock": 3440,
      "gn": 3441,
      "ĠInternational": 3442,
      "Ġang": 3443,
      "ĠChar": 3444,
      "Ġapplication": 3445,
      "-st": 3446,
      "Ġdark": 3447,
      "ĠHer": 3448,
      "Ġfast": 3449,
      "come": 3450,
      "ĠAlthough": 3451,
      "Ġmill": 3452,
      "ription": 3453,
      "pper": 3454,
      "Ġnucle": 3455,
      "istry": 3456,
      "hest": 3457,
      "Ġnews": 3458,
      "Ġjo": 3459,
      "Ġwaste": 3460,
      "Ġstri": 3461,
      "And": 3462,
      "ologies": 3463,
      "ĠAugust": 3464,
      "Ġhundred": 3465,
      "Ġinterp": 3466,
      "equ": 3467,
      "coh": 3468,
      "Ġdescribed": 3469,
      "Ġreceived": 3470,
      "fort": 3471,
      "Ġprotection": 3472,
      "ields": 3473,
      "Ġadults": 3474,
      "Ġlargest": 3475,
      "Ġimportance": 3476,
      "ĠHistory": 3477,
      "uk": 3478,
      "imin": 3479,
      "orthern": 3480,
      "Ġcosts": 3481,
      "Ġadminist": 3482,
      "Ġjud": 3483,
      "Ġelse": 3484,
      "Ġdemand": 3485,
      "ĠAnt": 3486,
      "Ġbrought": 3487,
      "Ġexcept": 3488,
      "Ġenjoy": 3489,
      "Ġsustain": 3490,
      "Ġweeks": 3491,
      "Ġcapac": 3492,
      "ĠTra": 3493,
      "Ġdevices": 3494,
      "AS": 3495,
      "Ġprivate": 3496,
      "Ġprocesses": 3497,
      "Ġcarry": 3498,
      "att": 3499,
      "ipment": 3500,
      "Ġgot": 3501,
      "ran": 3502,
      "used": 3503,
      "ĠReg": 3504,
      "ĠRiver": 3505,
      "cks": 3506,
      "izations": 3507,
      "Ġnearly": 3508,
      "Ġdecision": 3509,
      "Ġx": 3510,
      "Ġagricult": 3511,
      "Ġimages": 3512,
      "Ġdisp": 3513,
      "Ġwa": 3514,
      "Ġcred": 3515,
      "Ġbacteria": 3516,
      "estic": 3517,
      "Ġleaves": 3518,
      "Ġsolution": 3519,
      "Ġord": 3520,
      "Ġnorth": 3521,
      "ĠSw": 3522,
      "Ġstru": 3523,
      "ĠRet": 3524,
      "Ġsn": 3525,
      "ĠMus": 3526,
      "ĠApril": 3527,
      "Ġveh": 3528,
      "Ġult": 3529,
      "Ġlines": 3530,
      "ĠKe": 3531,
      "ulated": 3532,
      "Ġfit": 3533,
      "imal": 3534,
      "vest": 3535,
      "Ġgoal": 3536,
      "Ġplaces": 3537,
      "IV": 3538,
      "Ġbecomes": 3539,
      "Ġagree": 3540,
      "ĠCor": 3541,
      "Ġtable": 3542,
      "Ġlocated": 3543,
      "Ġep": 3544,
      "Ġmole": 3545,
      "wise": 3546,
      "ĠBar": 3547,
      "Ġtests": 3548,
      "ĠMon": 3549,
      "odies": 3550,
      "see": 3551,
      "ĠFirst": 3552,
      "Ġadop": 3553,
      "Ġwebsite": 3554,
      "rag": 3555,
      "Ġseason": 3556,
      "Ġmemory": 3557,
      "Ġrespond": 3558,
      "Ġcolon": 3559,
      "ĠJuly": 3560,
      "idents": 3561,
      "ĠHere": 3562,
      "ĠServ": 3563,
      "iles": 3564,
      "'re": 3565,
      "Ġcommunication": 3566,
      "Ġreach": 3567,
      "ĠJesus": 3568,
      "mission": 3569,
      "Ġrare": 3570,
      "Ġgame": 3571,
      "Ġtypically": 3572,
      "Ġappropriate": 3573,
      "Ġprojects": 3574,
      "Ġremain": 3575,
      "Ġestablish": 3576,
      "EN": 3577,
      "rael": 3578,
      "sect": 3579,
      "Ġmention": 3580,
      "entially": 3581,
      "Ġtold": 3582,
      "Ġremains": 3583,
      "Ġadapt": 3584,
      "Ġtechniques": 3585,
      "ibrary": 3586,
      "Ġborn": 3587,
      "Ġsites": 3588,
      "ĠDav": 3589,
      "Ġrapid": 3590,
      "Ġadj": 3591,
      "Ġeyes": 3592,
      "ĠEngland": 3593,
      "Ġdeal": 3594,
      "Ġlaws": 3595,
      "Ġcrop": 3596,
      "Ġsurround": 3597,
      "uous": 3598,
      "ĠTw": 3599,
      "Ġproperty": 3600,
      "Ġtesting": 3601,
      "Ġefforts": 3602,
      "itect": 3603,
      "Ġmix": 3604,
      "izes": 3605,
      "Ġsouth": 3606,
      "ĠWash": 3607,
      "Ġsummer": 3608,
      "Ġegg": 3609,
      "Ġinstall": 3610,
      "Ġreligious": 3611,
      "Ġbehavi": 3612,
      "Ġfriends": 3613,
      "ipl": 3614,
      "ĠAmericans": 3615,
      "Ġbasis": 3616,
      "Ġbeaut": 3617,
      "oke": 3618,
      "Ġadvant": 3619,
      "AC": 3620,
      "Ġcool": 3621,
      "inese": 3622,
      "Ġcultural": 3623,
      "ĠPress": 3624,
      "iece": 3625,
      "king": 3626,
      "Ġcreating": 3627,
      "eal": 3628,
      "Ġvict": 3629,
      "Ġgives": 3630,
      "-to": 3631,
      "Ġfather": 3632,
      "ĠAssoci": 3633,
      "oud": 3634,
      "ĠMc": 3635,
      "45": 3636,
      "resh": 3637,
      "ĠFrom": 3638,
      "aul": 3639,
      "Ġapplications": 3640,
      "ondon": 3641,
      "aid": 3642,
      "atur": 3643,
      "ED": 3644,
      "Ġhimself": 3645,
      "ĠChristian": 3646,
      "Ġeating": 3647,
      "At": 3648,
      "ford": 3649,
      ".)": 3650,
      "Ġcold": 3651,
      "ype": 3652,
      "Ġteeth": 3653,
      "Ġdied": 3654,
      "Ġdead": 3655,
      "arian": 3656,
      "Ġbreat": 3657,
      "head": 3658,
      "Ġteacher": 3659,
      "lim": 3660,
      "Ġconstruction": 3661,
      "Ġfinal": 3662,
      "Ġcitiz": 3663,
      "Ġsaw": 3664,
      "Ġstage": 3665,
      "ĠWilliam": 3666,
      "Ġsugar": 3667,
      "Ġder": 3668,
      "ĠDay": 3669,
      "ĠCanada": 3670,
      "-term": 3671,
      "itable": 3672,
      "cember": 3673,
      "ham": 3674,
      "Ġcenter": 3675,
      "ogen": 3676,
      "Ġanti": 3677,
      "Ġexamples": 3678,
      "cles": 3679,
      "uments": 3680,
      "Ġcalcul": 3681,
      "Ġfuel": 3682,
      "Ġmonitor": 3683,
      "Ġcam": 3684,
      "Ġmiles": 3685,
      "Ġroom": 3686,
      "ding": 3687,
      "Ġcommand": 3688,
      "ari": 3689,
      "Ġking": 3690,
      "ĠMy": 3691,
      "ĠPresident": 3692,
      "Ġtherapy": 3693,
      "Ġcou": 3694,
      "Ġcele": 3695,
      "ellig": 3696,
      "Ġtrade": 3697,
      "Ġexpected": 3698,
      "Ġpan": 3699,
      "illing": 3700,
      "Ġson": 3701,
      "Ġcoast": 3702,
      "cohol": 3703,
      "à¤": 3704,
      "Ġanything": 3705,
      "Ġsequ": 3706,
      "These": 3707,
      "Ġreasons": 3708,
      "Ġautom": 3709,
      "Ġaffected": 3710,
      "Ġhope": 3711,
      "Ġmiddle": 3712,
      "Ġgradu": 3713,
      "Ġresponsible": 3714,
      "Ġeverything": 3715,
      "Ġdepend": 3716,
      "Ġbenefit": 3717,
      "Ġpractices": 3718,
      "ros": 3719,
      "Ġund": 3720,
      "ĠChurch": 3721,
      "Ġrecently": 3722,
      "Ġdevice": 3723,
      "Ġdigital": 3724,
      "strial": 3725,
      "Ġhous": 3726,
      "Ġcru": 3727,
      "iar": 3728,
      "Ġimag": 3729,
      "Ġfollowed": 3730,
      "Ġnothing": 3731,
      "aught": 3732,
      "ira": 3733,
      "Ġcode": 3734,
      "Ġequipment": 3735,
      "ĠProg": 3736,
      "ĠPark": 3737,
      "Ġweb": 3738,
      "Ġreceive": 3739,
      "-S": 3740,
      "Ġbott": 3741,
      "Ġpen": 3742,
      "Ġbeyond": 3743,
      "lamm": 3744,
      "Ġolder": 3745,
      "ama": 3746,
      "Ġice": 3747,
      "Ġforces": 3748,
      "apter": 3749,
      "Ġbul": 3750,
      "ovember": 3751,
      "Ġconnect": 3752,
      "Ġconsequ": 3753,
      "Ġprofessional": 3754,
      "med": 3755,
      "ico": 3756,
      "Ġlegal": 3757,
      "ĠCong": 3758,
      "Ġmid": 3759,
      "Ġobjects": 3760,
      "Ġhyp": 3761,
      "Ġconflic": 3762,
      "ĠGovern": 3763,
      "Ġscreen": 3764,
      "mosp": 3765,
      "Ex": 3766,
      "Ġten": 3767,
      "Ġyourself": 3768,
      "Ġmodels": 3769,
      "Ġcontroll": 3770,
      "Ġexposure": 3771,
      "Ġrock": 3772,
      "ĠSeptember": 3773,
      "Ġchoose": 3774,
      "Ġcommunic": 3775,
      "Ġproviding": 3776,
      "ev": 3777,
      "Ġopportunity": 3778,
      "unch": 3779,
      "Ġeconomy": 3780,
      "ribute": 3781,
      "Ġasked": 3782,
      "Ġdate": 3783,
      "ula": 3784,
      "500": 3785,
      "ĠEc": 3786,
      "ĠEducation": 3787,
      "Ġfear": 3788,
      "Ġenh": 3789,
      "sec": 3790,
      "IT": 3791,
      "ought": 3792,
      "Ġspirit": 3793,
      "iples": 3794,
      "Ġsmaller": 3795,
      "Ġcra": 3796,
      "By": 3797,
      "ĠGreat": 3798,
      "ĠCity": 3799,
      "-year": 3800,
      "Ġoverall": 3801,
      "Ġrecommend": 3802,
      "Ġweather": 3803,
      "Ġstrength": 3804,
      "With": 3805,
      "Ġoccurs": 3806,
      "vert": 3807,
      "ĠIsrael": 3808,
      "ĠLear": 3809,
      "Ġdiabetes": 3810,
      "urg": 3811,
      "Ġtit": 3812,
      "Ġinsp": 3813,
      "ĠJanuary": 3814,
      "ĠTechn": 3815,
      "ĠIS": 3816,
      "Ġcurrently": 3817,
      "Ġfederal": 3818,
      "Ġsett": 3819,
      "ĠOctober": 3820,
      "ĠInc": 3821,
      "Ġrain": 3822,
      "ĠJournal": 3823,
      "186": 3824,
      "Ġorganization": 3825,
      "Ġpregn": 3826,
      "While": 3827,
      "ests": 3828,
      "Ġalone": 3829,
      "oe": 3830,
      "rees": 3831,
      "33": 3832,
      "ospital": 3833,
      "Ġdifferences": 3834,
      "Ġscale": 3835,
      "Ġdegree": 3836,
      "ĠWashington": 3837,
      "bit": 3838,
      "Ġrise": 3839,
      "Ġlocation": 3840,
      "Ġshape": 3841,
      "Ġeveryone": 3842,
      "Ġwrote": 3843,
      "Ġconstit": 3844,
      "Ġcompletely": 3845,
      "airs": 3846,
      "Ġwoman": 3847,
      "Ġtrying": 3848,
      "Ġswe": 3849,
      "Ġwon": 3850,
      "ĠFeb": 3851,
      "lin": 3852,
      "Ġrob": 3853,
      "Ġinstru": 3854,
      "ocr": 3855,
      "Ġmeasures": 3856,
      "Ġpredict": 3857,
      "Ġvia": 3858,
      "Ġbeg": 3859,
      "ĠPol": 3860,
      "Ġstandards": 3861,
      "ĠChinese": 3862,
      "uff": 3863,
      "ĠEven": 3864,
      "tery": 3865,
      "Ġvisual": 3866,
      "anish": 3867,
      "Ġearlier": 3868,
      "ĠSystem": 3869,
      "Ġdrugs": 3870,
      "Ġconstant": 3871,
      "Ġsuccessful": 3872,
      "Ġcommonly": 3873,
      "ĠCom": 3874,
      "amic": 3875,
      "Ġpet": 3876,
      "enge": 3877,
      "ensity": 3878,
      "ĠAccording": 3879,
      "PA": 3880,
      "load": 3881,
      "Ġpurch": 3882,
      "Ġrules": 3883,
      "Ġcollection": 3884,
      "Ġwinter": 3885,
      "Ġjoint": 3886,
      "Ġgoes": 3887,
      "Ġeffort": 3888,
      "Ġbirds": 3889,
      "ica": 3890,
      "back": 3891,
      "Ġvirt": 3892,
      "Ġformer": 3893,
      "rec": 3894,
      "Ġisn": 3895,
      "ĠCounty": 3896,
      "ĠLondon": 3897,
      "Ġball": 3898,
      "Ġreduced": 3899,
      "Ġnamed": 3900,
      "ĠSim": 3901,
      "aur": 3902,
      "Ġleave": 3903,
      "Ġbillion": 3904,
      "Ġmaintain": 3905,
      "ĠOur": 3906,
      "Ġusers": 3907,
      "rick": 3908,
      "Ġelectr": 3909,
      "Ġallowed": 3910,
      "Ġapprox": 3911,
      "ĠCommun": 3912,
      "Ġinteresting": 3913,
      "Ġcateg": 3914,
      "Ġplaced": 3915,
      "Ġexec": 3916,
      "Ġgenetic": 3917,
      "ĠBr": 3918,
      "Ġfile": 3919,
      "mitted": 3920,
      "ĠThen": 3921,
      "Ġmax": 3922,
      "Ġsteps": 3923,
      "iest": 3924,
      "Ġperfect": 3925,
      "edia": 3926,
      "Ġhistorical": 3927,
      "men": 3928,
      "ĠMex": 3929,
      "ĠEast": 3930,
      "Ġidentified": 3931,
      "Ġpoly": 3932,
      "Ġapplied": 3933,
      "Ġacqu": 3934,
      "oday": 3935,
      "Ġsch": 3936,
      "Ġmember": 3937,
      "ingu": 3938,
      "Ġoccup": 3939,
      "ĠRed": 3940,
      "ĠDis": 3941,
      "ara": 3942,
      "Ġhon": 3943,
      "uit": 3944,
      "Ġneigh": 3945,
      "Ġdiscovered": 3946,
      "Ġuser": 3947,
      "orks": 3948,
      "Ġfruit": 3949,
      "Ġcommerc": 3950,
      "Ġplanet": 3951,
      "ĠTrans": 3952,
      "Ġenter": 3953,
      "Ġdestro": 3954,
      "rieved": 3955,
      "Ġrich": 3956,
      "36": 3957,
      "Ġtrack": 3958,
      "ocks": 3959,
      "ĠHigh": 3960,
      "eech": 3961,
      "Ġcontext": 3962,
      "ĠDNA": 3963,
      "alt": 3964,
      "Ġpowerful": 3965,
      "iable": 3966,
      "ĠDecember": 3967,
      "off": 3968,
      "ords": 3969,
      "ĠDevelop": 3970,
      "Ġroad": 3971,
      "Ġgold": 3972,
      "Ġmob": 3973,
      "ĠBi": 3974,
      "irection": 3975,
      "Ġimmune": 3976,
      "amb": 3977,
      "book": 3978,
      "Ġdisplay": 3979,
      "Ġtox": 3980,
      "ibly": 3981,
      "Ġeight": 3982,
      "ĠArch": 3983,
      "Ġcontinued": 3984,
      "reet": 3985,
      "uro": 3986,
      "ĠVir": 3987,
      "Ġcompar": 3988,
      "Ġmis": 3989,
      "Ġsect": 3990,
      "Ġrule": 3991,
      "Ġmajority": 3992,
      "Ġcoming": 3993,
      "Ġformed": 3994,
      "water": 3995,
      "Ġpresence": 3996,
      "Ġshowed": 3997,
      "hemat": 3998,
      "ruary": 3999,
      "Ġproperties": 4000,
      "Ġguid": 4001,
      "Ġden": 4002,
      "Ġchurch": 4003,
      "ste": 4004,
      "aled": 4005,
      "oration": 4006,
      "ĠInst": 4007,
      "enty": 4008,
      "Ġacad": 4009,
      ".e": 4010,
      "Ġstatus": 4011,
      "Ġsigns": 4012,
      "]Ċ": 4013,
      "Ġmachine": 4014,
      "que": 4015,
      "-A": 4016,
      "ĠMod": 4017,
      "Ġfair": 4018,
      "ĠDuring": 4019,
      "Ġmiss": 4020,
      "Ġpow": 4021,
      "ĠRoman": 4022,
      "edom": 4023,
      "Ġlimit": 4024,
      "Ġbra": 4025,
      "aters": 4026,
      "Ġmig": 4027,
      "ĠRead": 4028,
      "Some": 4029,
      "Ġwond": 4030,
      "ĠVal": 4031,
      "ĠLaw": 4032,
      "ĠPat": 4033,
      "Ġphilos": 4034,
      "Ġversion": 4035,
      "known": 4036,
      "ament": 4037,
      "Ġteach": 4038,
      "more": 4039,
      "ĠCour": 4040,
      "ĠNovember": 4041,
      "Ġgave": 4042,
      "31": 4043,
      "rab": 4044,
      "ĠBlack": 4045,
      "Ġcapacity": 4046,
      "Ġmouth": 4047,
      "ocol": 4048,
      "Ġnutri": 4049,
      "Ġincreases": 4050,
      "Ġsymbol": 4051,
      "Ġrat": 4052,
      "Ġpatterns": 4053,
      "Ġsitu": 4054,
      "aint": 4055,
      "Ġcook": 4056,
      "Ġassign": 4057,
      "Ġfactor": 4058,
      "ogle": 4059,
      "osy": 4060,
      "Ġillness": 4061,
      "Ġcry": 4062,
      "Ġasse": 4063,
      "Ġcities": 4064,
      "gery": 4065,
      "Ġperhaps": 4066,
      "Ġgir": 4067,
      "Ġstrugg": 4068,
      "can": 4069,
      "Ġchoice": 4070,
      "Ġcourt": 4071,
      "ees": 4072,
      "Ġbelief": 4073,
      "Ġstim": 4074,
      "related": 4075,
      "Ġremember": 4076,
      "Ġdat": 4077,
      "phas": 4078,
      "Ġantib": 4079,
      "-e": 4080,
      "Ġtissue": 4081,
      "Ġfully": 4082,
      "Ġemp": 4083,
      "Ġactions": 4084,
      "aste": 4085,
      "Ġatmosp": 4086,
      "Ġrelatively": 4087,
      "ĠCoun": 4088,
      "ĠSan": 4089,
      "Ġchanged": 4090,
      "Ġbaby": 4091,
      "Pro": 4092,
      "life": 4093,
      "iring": 4094,
      "ĠSur": 4095,
      "cious": 4096,
      "Ġillust": 4097,
      "Ġnote": 4098,
      "Ġanx": 4099,
      "ternal": 4100,
      "Ġemissions": 4101,
      "Ġefficient": 4102,
      "Ġfemale": 4103,
      "Ġincor": 4104,
      "Ġ+": 4105,
      "Ġdidn": 4106,
      "Ġ:": 4107,
      "Ġpromot": 4108,
      "Ġassist": 4109,
      "craft": 4110,
      "Ġtou": 4111,
      "Ġmoment": 4112,
      "Ġworth": 4113,
      "encies": 4114,
      "Ġunit": 4115,
      "ĠSince": 4116,
      "emy": 4117,
      "orge": 4118,
      "Ġevolution": 4119,
      "Ġtask": 4120,
      "Ġprice": 4121,
      "Ġhair": 4122,
      "ĠHouse": 4123,
      "Ġstories": 4124,
      "Ġmut": 4125,
      "Ġvill": 4126,
      "Ġappears": 4127,
      "Ġfunctions": 4128,
      "Ġchallenges": 4129,
      "Ġpeace": 4130,
      "Ġeffic": 4131,
      "ĠAlso": 4132,
      "resp": 4133,
      "Ġmoving": 4134,
      "Ġroot": 4135,
      "-C": 4136,
      "ĠUK": 4137,
      "ĠSociety": 4138,
      "Ġcomponents": 4139,
      "inated": 4140,
      "ĠFin": 4141,
      "Ġarchitect": 4142,
      "odes": 4143,
      "AL": 4144,
      "Ġast": 4145,
      "ĠGeneral": 4146,
      "Ġconstruct": 4147,
      "ĠNow": 4148,
      "ĠBecause": 4149,
      "ĠAustralia": 4150,
      "atin": 4151,
      "Ġnames": 4152,
      "Ġexisting": 4153,
      "189": 4154,
      "gypt": 4155,
      "udd": 4156,
      "Ġalcohol": 4157,
      "Ġforward": 4158,
      "ĠUnion": 4159,
      "Ġoffers": 4160,
      "Ġpiece": 4161,
      "Ġfresh": 4162,
      "rief": 4163,
      "Ġelement": 4164,
      "ĠProf": 4165,
      "Ġstaff": 4166,
      "iences": 4167,
      "Ġworked": 4168,
      "aign": 4169,
      "Ġdistance": 4170,
      "iful": 4171,
      "Ġpp": 4172,
      "ero": 4173,
      "ĠWater": 4174,
      "era": 4175,
      "ĠGermany": 4176,
      "Ġstyle": 4177,
      "Ġfindings": 4178,
      "Ġinstance": 4179,
      "ĠAre": 4180,
      "rehens": 4181,
      "Ġguide": 4182,
      "Ġinnov": 4183,
      "Ġeducational": 4184,
      "Ġobserved": 4185,
      "Ġrepe": 4186,
      "Ġconvers": 4187,
      "Ġtransfer": 4188,
      "Ġcontract": 4189,
      "75": 4190,
      "ession": 4191,
      "Ġgiving": 4192,
      "Ġstar": 4193,
      "Ġopportunities": 4194,
      "ĠFl": 4195,
      "abilities": 4196,
      "iate": 4197,
      "EC": 4198,
      "II": 4199,
      "rupt": 4200,
      "Ġriver": 4201,
      "ĠJust": 4202,
      "ĠRo": 4203,
      "Ġexpand": 4204,
      "ĠConf": 4205,
      "Ġconsumption": 4206,
      "Ġequal": 4207,
      "ĠPeople": 4208,
      "Ġgarden": 4209,
      "rome": 4210,
      "Ġevalu": 4211,
      "ygen": 4212,
      "co": 4213,
      "ĠJewish": 4214,
      "Ġbalance": 4215,
      "ĠFrance": 4216,
      "\",": 4217,
      "Ġing": 4218,
      "Ġresistance": 4219,
      "Ġforeign": 4220,
      "Ġreports": 4221,
      "ky": 4222,
      "Ġpicture": 4223,
      "Ġbox": 4224,
      "Ġweak": 4225,
      "Ġexperim": 4226,
      "Ġhuge": 4227,
      "Ġthousands": 4228,
      "Ġtele": 4229,
      "Ġmal": 4230,
      ");": 4231,
      "ĠProt": 4232,
      "Ġabsor": 4233,
      "Ġdirection": 4234,
      "Ġsignificantly": 4235,
      "icip": 4236,
      "ĠUse": 4237,
      "Ġqual": 4238,
      "eding": 4239,
      "Ġblue": 4240,
      "iny": 4241,
      "pective": 4242,
      "Ġregions": 4243,
      "Ġiron": 4244,
      "Ġcollabor": 4245,
      "onn": 4246,
      "Ġdetect": 4247,
      "Ġmission": 4248,
      "Ġvo": 4249,
      "Ġmap": 4250,
      "bre": 4251,
      "ĠRetrieved": 4252,
      "Ġstrategies": 4253,
      "Ġrunning": 4254,
      "Ġplanning": 4255,
      "ald": 4256,
      "Ġoptions": 4257,
      "Ġexplain": 4258,
      "hors": 4259,
      "Ġsuggests": 4260,
      "Ġdefined": 4261,
      "omas": 4262,
      "Ġsurvey": 4263,
      "Ġincome": 4264,
      "Ġbelieved": 4265,
      "Ġfriend": 4266,
      "Ġvision": 4267,
      "Ġfamous": 4268,
      "force": 4269,
      "Ġwrong": 4270,
      "Ġchance": 4271,
      "Ġassum": 4272,
      "ĠAssociation": 4273,
      "Ġdetails": 4274,
      "asion": 4275,
      "Ad": 4276,
      "igen": 4277,
      "Ġoffice": 4278,
      "Be": 4279,
      "yd": 4280,
      "ifically": 4281,
      "Ġgain": 4282,
      "Ġspect": 4283,
      "Ġpassed": 4284,
      "Ġinstruct": 4285,
      "Un": 4286,
      "Ġbreast": 4287,
      "Ġnative": 4288,
      "Ġmuscle": 4289,
      "orage": 4290,
      "ĠPhil": 4291,
      "ĠTheir": 4292,
      "Ġclinical": 4293,
      "Ġdisorder": 4294,
      "Ġbound": 4295,
      "Ġcarried": 4296,
      "Ġtreated": 4297,
      "Ġutil": 4298,
      "apers": 4299,
      "ĠNA": 4300,
      "Ġcitizens": 4301,
      "Ġexperiences": 4302,
      "34": 4303,
      "âĢĿ,": 4304,
      "Ġplastic": 4305,
      "Ġplans": 4306,
      "Ġextremely": 4307,
      "Ġwatch": 4308,
      "Ġinsect": 4309,
      "Ġexhib": 4310,
      "isation": 4311,
      "Ġfix": 4312,
      "ĠEnvironment": 4313,
      "pped": 4314,
      "ĠMedic": 4315,
      "Ġdivid": 4316,
      "Ġexcess": 4317,
      "Ġseparate": 4318,
      "ĠFebruary": 4319,
      "Ġattract": 4320,
      "Ġclassroom": 4321,
      "Ġfeature": 4322,
      "Ġitems": 4323,
      "Ġsuppl": 4324,
      "ST": 4325,
      "Ġfert": 4326,
      "ching": 4327,
      "HE": 4328,
      "Ġeventually": 4329,
      "Ġstructures": 4330,
      "All": 4331,
      "Ġglass": 4332,
      "ĠAng": 4333,
      "Ġnovel": 4334,
      "Ġapply": 4335,
      "Ġexplore": 4336,
      "oma": 4337,
      "ĠPal": 4338,
      "Ġseven": 4339,
      "Ġhighest": 4340,
      "Ġpresented": 4341,
      "ĠEach": 4342,
      "Ġfigure": 4343,
      "188": 4344,
      "Ġcelebr": 4345,
      "Ġbone": 4346,
      "Ġspring": 4347,
      "Ġgeneration": 4348,
      "Ġtopic": 4349,
      "Ġcommercial": 4350,
      "Ġrot": 4351,
      "Ġsurpr": 4352,
      "Ġphen": 4353,
      "ĠCongress": 4354,
      "uild": 4355,
      "Ġrequirements": 4356,
      "iox": 4357,
      "Ġmilk": 4358,
      "Ġdecades": 4359,
      "Ġmale": 4360,
      "DA": 4361,
      "Ġliqu": 4362,
      "After": 4363,
      "Ġhappen": 4364,
      "Ġheavy": 4365,
      "Ġtechnologies": 4366,
      "Ġorganizations": 4367,
      "Ġimmediately": 4368,
      "Ġfavor": 4369,
      "Ġgoals": 4370,
      "uls": 4371,
      "Ġsac": 4372,
      "ĠEgypt": 4373,
      "32": 4374,
      "Is": 4375,
      "ographic": 4376,
      "Ġurban": 4377,
      "lege": 4378,
      "Ġindustrial": 4379,
      "Ġjournal": 4380,
      "Ġmo": 4381,
      "asks": 4382,
      "iance": 4383,
      "ares": 4384,
      "Ġpick": 4385,
      "Ġeasier": 4386,
      "ĠWestern": 4387,
      "eces": 4388,
      "Ġboard": 4389,
      "wards": 4390,
      "ĠThus": 4391,
      "ĠLord": 4392,
      "Ġmedicine": 4393,
      "ube": 4394,
      "char": 4395,
      "wide": 4396,
      "change": 4397,
      ".C": 4398,
      "Ġlearned": 4399,
      "Ġsave": 4400,
      ".;": 4401,
      "ĠCur": 4402,
      "Ġconducted": 4403,
      "Ġemphas": 4404,
      "Ġdepression": 4405,
      "ulum": 4406,
      "house": 4407,
      "ĠGreen": 4408,
      "Ġhom": 4409,
      "Ġbank": 4410,
      "iant": 4411,
      "Ġreality": 4412,
      "Ġbed": 4413,
      "ophy": 4414,
      "ĠBra": 4415,
      "Ġtruth": 4416,
      "ken": 4417,
      "Ġintellig": 4418,
      "ĠInternet": 4419,
      "ĠRev": 4420,
      "38": 4421,
      "bed": 4422,
      "Ġdyn": 4423,
      "ris": 4424,
      "RE": 4425,
      "zz": 4426,
      "Ġvary": 4427,
      "Ġsample": 4428,
      "enth": 4429,
      "ologist": 4430,
      "uing": 4431,
      "Ġresource": 4432,
      "They": 4433,
      "Ġmer": 4434,
      "Ġcontrast": 4435,
      "Ġcycle": 4436,
      "Ġremove": 4437,
      "Ġintroduced": 4438,
      "Ġfaith": 4439,
      "Ġslight": 4440,
      "37": 4441,
      "Ġserve": 4442,
      "Ġchallenge": 4443,
      "Ġbecoming": 4444,
      "plications": 4445,
      "Ġagg": 4446,
      "che": 4447,
      "Ġrelease": 4448,
      "Ġapproximately": 4449,
      "ĠLet": 4450,
      "Ġperformed": 4451,
      "Ġspeech": 4452,
      "iated": 4453,
      "Ġletter": 4454,
      "ĠPublic": 4455,
      "ĠMary": 4456,
      "Ġbodies": 4457,
      "Ġactual": 4458,
      "Ġelectricity": 4459,
      "Ġliterature": 4460,
      "Ġcand": 4461,
      "Ġalternative": 4462,
      "ĠInter": 4463,
      "ĠJames": 4464,
      "Ġdistribution": 4465,
      "Ġdecisions": 4466,
      "erate": 4467,
      "Ġâ": 4468,
      "Ġexperiment": 4469,
      "Ġmetal": 4470,
      "Ġsexual": 4471,
      "ĠJapanese": 4472,
      "Ġfig": 4473,
      "ĠMat": 4474,
      "Ġrecommended": 4475,
      "ĠAut": 4476,
      "Ġves": 4477,
      "Ġpopulations": 4478,
      "Ġgraph": 4479,
      "Ġaspects": 4480,
      "Ġkid": 4481,
      "Ġnutrition": 4482,
      "uses": 4483,
      "ida": 4484,
      "Ġdestroy": 4485,
      "Ġlegis": 4486,
      "ĠUN": 4487,
      "Ġtemperatures": 4488,
      "ĠSpec": 4489,
      "Ġopin": 4490,
      "Ġstream": 4491,
      "ĠMich": 4492,
      "imens": 4493,
      "antic": 4494,
      "tical": 4495,
      "ĠProgram": 4496,
      "Ġoxygen": 4497,
      "Ġrecords": 4498,
      "unction": 4499,
      "Ġmoved": 4500,
      "ĠDon": 4501,
      "Ġpresident": 4502,
      "/or": 4503,
      "cast": 4504,
      "ĠMor": 4505,
      "Ġgene": 4506,
      "Ġestimated": 4507,
      "othes": 4508,
      "Ġdisorders": 4509,
      "ĠDes": 4510,
      "Ġorganic": 4511,
      "Ġnuclear": 4512,
      "Ġconnected": 4513,
      "Ġfrequently": 4514,
      "Ġwidely": 4515,
      "ager": 4516,
      "187": 4517,
      "Ġparty": 4518,
      "ii": 4519,
      "Â°": 4520,
      "Ġhousehold": 4521,
      "ously": 4522,
      "Ġcombination": 4523,
      "Ġchronic": 4524,
      "Ph": 4525,
      "Ġign": 4526,
      "ulf": 4527,
      "Ġdesp": 4528,
      "Ġmag": 4529,
      "Ġnumerous": 4530,
      "Ġbuy": 4531,
      "Ġassessment": 4532,
      "porary": 4533,
      "ructure": 4534,
      "ias": 4535,
      "ĠOver": 4536,
      "Ġindependent": 4537,
      "Ġreference": 4538,
      "tee": 4539,
      "Ġcausing": 4540,
      "Ġbuildings": 4541,
      "Ġtrust": 4542,
      "Ġreleased": 4543,
      "Ġnotes": 4544,
      "300": 4545,
      "raw": 4546,
      "Ġvitamin": 4547,
      "ĠNet": 4548,
      "ĠDec": 4549,
      "Ġfields": 4550,
      "Ġflood": 4551,
      "order": 4552,
      "ĠChe": 4553,
      "ĠVol": 4554,
      "ĠDavid": 4555,
      "âĢĿ.": 4556,
      "Ġfilm": 4557,
      "ĠCouncil": 4558,
      "Ġviolence": 4559,
      "Ġstatement": 4560,
      "Ġcharacteristics": 4561,
      "Ġdoub": 4562,
      "Ġhomes": 4563,
      "Ġsolutions": 4564,
      "Ġparticipants": 4565,
      "Ġoperations": 4566,
      "ologists": 4567,
      "Ġdogs": 4568,
      "Ġesc": 4569,
      "Ġstore": 4570,
      "ĠFound": 4571,
      "Ġtransl": 4572,
      "clus": 4573,
      "Ġrisks": 4574,
      "edic": 4575,
      "rant": 4576,
      "raction": 4577,
      "Ġdrive": 4578,
      "icial": 4579,
      "-M": 4580,
      "185": 4581,
      "Ġchanging": 4582,
      "Ġcompl": 4583,
      "Ġsetting": 4584,
      "care": 4585,
      "Ġclearly": 4586,
      "Ġinflamm": 4587,
      "Ġcollege": 4588,
      "Ġfailure": 4589,
      "elines": 4590,
      "iders": 4591,
      "ĠCollege": 4592,
      "ĠPlan": 4593,
      "Ġpolicies": 4594,
      "-up": 4595,
      "Ġthr": 4596,
      "ĠChildren": 4597,
      "Ġtrig": 4598,
      "Ġprefer": 4599,
      "erences": 4600,
      "ressive": 4601,
      "Ġkilled": 4602,
      "cular": 4603,
      "roph": 4604,
      "ognitive": 4605,
      "ĠGreek": 4606,
      "Ġgets": 4607,
      "Ġreducing": 4608,
      "Ġlayer": 4609,
      "Ġunivers": 4610,
      "ped": 4611,
      "Ġisol": 4612,
      "Ġemail": 4613,
      "iveness": 4614,
      "ĠSee": 4615,
      "Ġstarting": 4616,
      "Ġdrop": 4617,
      "Ġlived": 4618,
      "olved": 4619,
      "Ġresulting": 4620,
      "ilit": 4621,
      "Ġbottom": 4622,
      "Ġappe": 4623,
      "Ġinternal": 4624,
      "Ġpartners": 4625,
      "ij": 4626,
      "Ġdiscussion": 4627,
      "Ġwanted": 4628,
      "Ġminor": 4629,
      "PS": 4630,
      "Ġinitial": 4631,
      "Ġauthors": 4632,
      "Ġshap": 4633,
      "Ġready": 4634,
      "ET": 4635,
      "tered": 4636,
      "Ġcampaign": 4637,
      "Ġdri": 4638,
      "Ġcovered": 4639,
      "rest": 4640,
      "ĠAv": 4641,
      "Ġburn": 4642,
      "65": 4643,
      "works": 4644,
      "Ġinjury": 4645,
      "39": 4646,
      "Ġprepar": 4647,
      "ĠRel": 4648,
      "essor": 4649,
      "ĠSocial": 4650,
      "Ġtechnique": 4651,
      "Ġocean": 4652,
      "Ġtour": 4653,
      "anging": 4654,
      "bal": 4655,
      ".)Ċ": 4656,
      "Ġconnection": 4657,
      "Ġanyone": 4658,
      "Ġnoted": 4659,
      "ĠWeb": 4660,
      "Ġinfections": 4661,
      "roup": 4662,
      "Ġanxiety": 4663,
      "Ġplat": 4664,
      "Ġbattle": 4665,
      "Ġrelationships": 4666,
      "ĠTherefore": 4667,
      "Ġinvolves": 4668,
      "ĠOb": 4669,
      "ĠHuman": 4670,
      "hetic": 4671,
      "Ġhear": 4672,
      "Ġdistinct": 4673,
      "Ġhorm": 4674,
      "ĠRepublic": 4675,
      "Ġsurgery": 4676,
      "olid": 4677,
      "Ġthick": 4678,
      "Ġremoved": 4679,
      "atically": 4680,
      "Ġturned": 4681,
      "48": 4682,
      "rog": 4683,
      "Ġmostly": 4684,
      "urance": 4685,
      "key": 4686,
      "Ġhappens": 4687,
      "ieties": 4688,
      "Ġtim": 4689,
      "Ġexactly": 4690,
      "Ġtooth": 4691,
      "Ġalg": 4692,
      "erved": 4693,
      "Ġvessel": 4694,
      "According": 4695,
      "EM": 4696,
      "Ġsand": 4697,
      "AM": 4698,
      "Ġarm": 4699,
      "Ġterrit": 4700,
      "Ġtrend": 4701,
      "Ġ#": 4702,
      "ĠMuseum": 4703,
      "ocal": 4704,
      "Ġcreation": 4705,
      "Ġreplace": 4706,
      "Ġsav": 4707,
      "Ġupper": 4708,
      "Ġload": 4709,
      "Ġcircum": 4710,
      "Ġreferred": 4711,
      "78": 4712,
      "Ġfeeling": 4713,
      "However": 4714,
      "ĠTex": 4715,
      "ĠWork": 4716,
      "och": 4717,
      "Ġcounter": 4718,
      "onds": 4719,
      "Ġseed": 4720,
      "Ġstorage": 4721,
      "ĠDevelopment": 4722,
      "ĠSpanish": 4723,
      "Ar": 4724,
      "Ġdegrees": 4725,
      "ĠUnder": 4726,
      "Ġbackground": 4727,
      "Ġexpression": 4728,
      "Ġfinding": 4729,
      "Ġreprodu": 4730,
      "amental": 4731,
      "Ġpi": 4732,
      "ĠPaul": 4733,
      "Ġtrib": 4734,
      "Ġencourage": 4735,
      "rows": 4736,
      "Ġdangerous": 4737,
      "ĠTur": 4738,
      "Ġradio": 4739,
      "Ġvolume": 4740,
      "Ġoutput": 4741,
      "ĠSam": 4742,
      "Ġgenes": 4743,
      "Ġconv": 4744,
      "ĠFood": 4745,
      "ault": 4746,
      "ception": 4747,
      "Ġseeds": 4748,
      "Ġgames": 4749,
      "Ġvul": 4750,
      "Ġfine": 4751,
      "ĠAir": 4752,
      "Ġmessage": 4753,
      "Ġpal": 4754,
      "Ġadvanced": 4755,
      "Ġtrou": 4756,
      "Ġwin": 4757,
      "Ġclasses": 4758,
      "ĠâĢ¦": 4759,
      "...Ċ": 4760,
      "Ġconfirm": 4761,
      "Ġfreedom": 4762,
      "Ġscen": 4763,
      "Ġphysic": 4764,
      "Ġprinciples": 4765,
      "Ġexperts": 4766,
      "Ġadjust": 4767,
      "ios": 4768,
      "uration": 4769,
      "Ġupd": 4770,
      "Ġacademic": 4771,
      "Ġunf": 4772,
      "OS": 4773,
      "Ġincorpor": 4774,
      "Ġannual": 4775,
      "Ġnor": 4776,
      "Ġproperly": 4777,
      "Ġcore": 4778,
      "Ġmentioned": 4779,
      "Ġtum": 4780,
      "ĠGovernment": 4781,
      "ĠGeorge": 4782,
      "osystem": 4783,
      "Ġrace": 4784,
      "ndrome": 4785,
      "ĠCourt": 4786,
      "Ġdie": 4787,
      "Ġwhom": 4788,
      "Ġoption": 4789,
      "Ġradiation": 4790,
      "Ġhelped": 4791,
      "Ġcomprehens": 4792,
      "Ġleads": 4793,
      "Ġmeeting": 4794,
      "lick": 4795,
      "riculum": 4796,
      "Ġdram": 4797,
      "Ġconflict": 4798,
      "Ġadvantage": 4799,
      "Ġdetermined": 4800,
      "Ġreligion": 4801,
      "Ġemotional": 4802,
      "ĠTest": 4803,
      "Ġunits": 4804,
      "ĠRober": 4805,
      "Ġexperienced": 4806,
      "ressed": 4807,
      "Ġdiss": 4808,
      "ishing": 4809,
      "Ġlandsc": 4810,
      "Ġregarding": 4811,
      "ortunately": 4812,
      "Ġpric": 4813,
      "ĠWhy": 4814,
      "-le": 4815,
      "orial": 4816,
      "ĠGra": 4817,
      "Ġprocessing": 4818,
      "Ġexcell": 4819,
      "oyal": 4820,
      "Ġbelong": 4821,
      "Ġinvolve": 4822,
      "ĠOrgan": 4823,
      "Ġvictim": 4824,
      "Ġprofession": 4825,
      "Ġsolid": 4826,
      "ĠCath": 4827,
      "met": 4828,
      "Ġexposed": 4829,
      "ĠOff": 4830,
      "Ġtransform": 4831,
      "urt": 4832,
      "ĠOnce": 4833,
      "Ġreb": 4834,
      "Ġelimin": 4835,
      "Ġmath": 4836,
      "Ġlung": 4837,
      "Ġinfluen": 4838,
      "Ġgender": 4839,
      "Ġpreviously": 4840,
      "Ġsynt": 4841,
      "Ġgrade": 4842,
      "ander": 4843,
      "riage": 4844,
      "ĠFore": 4845,
      "180": 4846,
      "ping": 4847,
      "Ġjour": 4848,
      "Ġclick": 4849,
      "Ġlinked": 4850,
      "Ġpollution": 4851,
      "ux": 4852,
      "Ġdepending": 4853,
      "Ġreaction": 4854,
      "rum": 4855,
      "Ġgod": 4856,
      "Ġmathemat": 4857,
      "Ġinh": 4858,
      "Ġeffectively": 4859,
      "44": 4860,
      "Ġheard": 4861,
      "Ġrelevant": 4862,
      "Ġpromote": 4863,
      "Ġgrass": 4864,
      "Ġexpert": 4865,
      "Ġdescribe": 4866,
      "Ġgrant": 4867,
      "ĠInf": 4868,
      "Ġkept": 4869,
      "Ġdefic": 4870,
      "onic": 4871,
      "Res": 4872,
      "Ġmist": 4873,
      "place": 4874,
      "Ġmotor": 4875,
      "Ġamounts": 4876,
      "rep": 4877,
      "Ġspot": 4878,
      "Ġinput": 4879,
      "Ġbeautiful": 4880,
      "cers": 4881,
      "Ġisland": 4882,
      "Ġmeat": 4883,
      "-th": 4884,
      "ago": 4885,
      "Ġhelping": 4886,
      "Ġmanufacture": 4887,
      "Ġsem": 4888,
      "uted": 4889,
      "Ġconcerns": 4890,
      "Ġplease": 4891,
      "stitution": 4892,
      "-B": 4893,
      ".D": 4894,
      "Ġserved": 4895,
      "Ġround": 4896,
      "upp": 4897,
      "ributed": 4898,
      "Ġcoal": 4899,
      "Ġfol": 4900,
      "ĠPhys": 4901,
      "Ġsort": 4902,
      "za": 4903,
      "Ġinterpret": 4904,
      "Here": 4905,
      "bl": 4906,
      "Ġconservation": 4907,
      "oking": 4908,
      "ategy": 4909,
      "ĠJews": 4910,
      "95": 4911,
      "do": 4912,
      "ĠDem": 4913,
      "Sh": 4914,
      "ĠMal": 4915,
      "ĠHIV": 4916,
      "ĠMark": 4917,
      "ĠProject": 4918,
      "Ġwealth": 4919,
      "mal": 4920,
      "ĠMount": 4921,
      "umn": 4922,
      "Ġcalc": 4923,
      "road": 4924,
      "ĠLa": 4925,
      "Ġphase": 4926,
      "Ġprepared": 4927,
      "Ġoperation": 4928,
      "ĠSun": 4929,
      "Ġmeant": 4930,
      "ĠAsia": 4931,
      "ĠIts": 4932,
      "Ġvot": 4933,
      "rete": 4934,
      "ya": 4935,
      "itz": 4936,
      "iverse": 4937,
      "Ġeggs": 4938,
      "ĠIsland": 4939,
      "Ġinterested": 4940,
      "Ġstrategy": 4941,
      "Ġconcepts": 4942,
      "Ġmanage": 4943,
      "Ġdefinition": 4944,
      "Ġcomfort": 4945,
      "Many": 4946,
      "Ġsaying": 4947,
      "Ġdecided": 4948,
      "Ġimproved": 4949,
      "Ġengineering": 4950,
      "ĠBel": 4951,
      "ifying": 4952,
      "ams": 4953,
      "part": 4954,
      "Ġfarmers": 4955,
      "ĠPort": 4956,
      "Ġsquare": 4957,
      "Ġpages": 4958,
      "Ġhour": 4959,
      "Ġconsult": 4960,
      "Ġpresc": 4961,
      "Ġkill": 4962,
      "Ġmel": 4963,
      "Ġspent": 4964,
      "Ġship": 4965,
      "alled": 4966,
      "Ġobvious": 4967,
      "Ġefficiency": 4968,
      "inate": 4969,
      "Ġsouthern": 4970,
      "ĠRich": 4971,
      "ĠHen": 4972,
      "Ġpip": 4973,
      "Ġofficial": 4974,
      "Ġnorthern": 4975,
      "zing": 4976,
      "Ġdatab": 4977,
      "Ġaid": 4978,
      "Ġarticles": 4979,
      "standing": 4980,
      "ĠST": 4981,
      "That": 4982,
      "Ġimpl": 4983,
      "Ġconcern": 4984,
      "Ġvolunt": 4985,
      "Ġhearing": 4986,
      "ĠMexico": 4987,
      "Ġbud": 4988,
      "ria": 4989,
      "ta": 4990,
      "Ġcompleted": 4991,
      "nes": 4992,
      "lease": 4993,
      "Ġpun": 4994,
      "Ġdiscover": 4995,
      "tes": 4996,
      "-n": 4997,
      "ears": 4998,
      "-related": 4999,
      "184": 5000,
      "Ġdiagnosis": 5001,
      "Ġmanner": 5002,
      "Ġcast": 5003,
      "isher": 5004,
      "Ġvegetables": 5005,
      "aughter": 5006,
      "leg": 5007,
      "ĠService": 5008,
      "Ġvaccine": 5009,
      "ded": 5010,
      "ĠIsl": 5011,
      "Our": 5012,
      "Ġinvent": 5013,
      "Ġcredit": 5014,
      "Ġlanguages": 5015,
      "Ġatmosphere": 5016,
      "Ġcere": 5017,
      "Ġowners": 5018,
      "with": 5019,
      "Ġconclud": 5020,
      "Ġawareness": 5021,
      "Ġsignal": 5022,
      "Ġsustainable": 5023,
      "Ġseek": 5024,
      "iling": 5025,
      "Ġplatform": 5026,
      "clusion": 5027,
      "Ġsong": 5028,
      "Ġreached": 5029,
      "well": 5030,
      "Why": 5031,
      "Ġinstitutions": 5032,
      "kin": 5033,
      "Ġwest": 5034,
      "berg": 5035,
      "wood": 5036,
      "Ġconver": 5037,
      "Ġpret": 5038,
      "ĠBer": 5039,
      "rans": 5040,
      "acing": 5041,
      "Ġprofessor": 5042,
      "Ġmainly": 5043,
      "ĠTexas": 5044,
      "Ġclos": 5045,
      "Ã¡": 5046,
      "Ġchemicals": 5047,
      "onomic": 5048,
      "Ġhop": 5049,
      "Ġhospital": 5050,
      "Ġmotiv": 5051,
      "nic": 5052,
      "ĠHel": 5053,
      "ĠWhite": 5054,
      "Ġprocedure": 5055,
      "55": 5056,
      "uable": 5057,
      "Im": 5058,
      "Ġsamples": 5059,
      "Although": 5060,
      "ormal": 5061,
      "comes": 5062,
      "Ġlesson": 5063,
      "Äģ": 5064,
      "CC": 5065,
      "astern": 5066,
      "ĠMars": 5067,
      "ules": 5068,
      "-like": 5069,
      "150": 5070,
      "rates": 5071,
      "Ġyellow": 5072,
      "Ġlooks": 5073,
      "vision": 5074,
      "Ġsecret": 5075,
      "Ġpieces": 5076,
      "ĠStudents": 5077,
      "ĠRem": 5078,
      "Ġcontribute": 5079,
      "Ġmort": 5080,
      "Ġcontinues": 5081,
      "Ġproposed": 5082,
      "Ġsupported": 5083,
      "ĠEv": 5084,
      "Ġappoint": 5085,
      "Ġfrequency": 5086,
      "Ġrecorded": 5087,
      "Ġpractical": 5088,
      "Ġreduction": 5089,
      "Ġpurposes": 5090,
      "Ġformation": 5091,
      "Ġcorresp": 5092,
      "ĠSub": 5093,
      "Ġlib": 5094,
      "rence": 5095,
      "Ġrevolution": 5096,
      "ĠAD": 5097,
      "ĠCentral": 5098,
      "mat": 5099,
      "New": 5100,
      "Ġnotice": 5101,
      "ball": 5102,
      "Ġnav": 5103,
      "Ġextensive": 5104,
      "iology": 5105,
      "osite": 5106,
      "Ġcharge": 5107,
      "which": 5108,
      "alle": 5109,
      "Ġvulner": 5110,
      "Ġallowing": 5111,
      "acific": 5112,
      "Ġshared": 5113,
      "ĠEvery": 5114,
      "otic": 5115,
      "Ġauthority": 5116,
      "Ġpul": 5117,
      "Now": 5118,
      "ishes": 5119,
      "Ġintended": 5120,
      "ĠDi": 5121,
      "ĠSer": 5122,
      "ĠJe": 5123,
      "lig": 5124,
      "mark": 5125,
      "Ġbrother": 5126,
      "OT": 5127,
      "Ġdro": 5128,
      "Ġstorm": 5129,
      "Ġyouth": 5130,
      "Ġbegins": 5131,
      "ĠBritain": 5132,
      "ĠJer": 5133,
      "Ġelectrical": 5134,
      "Ġflex": 5135,
      "eters": 5136,
      "rations": 5137,
      "'ll": 5138,
      "Ġcris": 5139,
      "Ġsituations": 5140,
      "ounced": 5141,
      "ĠAcad": 5142,
      "Ġdrinking": 5143,
      "eline": 5144,
      "akers": 5145,
      "ĠMac": 5146,
      "Ġtoxic": 5147,
      "Ġheight": 5148,
      "Ġsufficient": 5149,
      "ample": 5150,
      "aker": 5151,
      "Ġmaster": 5152,
      "itors": 5153,
      "Ġhttps": 5154,
      "Ġcombined": 5155,
      "board": 5156,
      "ĠMiss": 5157,
      "Ġfinally": 5158,
      "Ġideal": 5159,
      "Ġwet": 5160,
      "Ġhit": 5161,
      "ĠBas": 5162,
      "ĠÃ": 5163,
      "Ġstation": 5164,
      "Ġtreatments": 5165,
      "Ġsusp": 5166,
      "Ġpark": 5167,
      "Ġfocused": 5168,
      "Ġrenew": 5169,
      "Ġprimarily": 5170,
      "acters": 5171,
      "ses": 5172,
      "anch": 5173,
      "Ġjobs": 5174,
      "Ġfacts": 5175,
      "ek": 5176,
      "Ġtasks": 5177,
      "Ġliquid": 5178,
      "ixt": 5179,
      "istan": 5180,
      "ĠOld": 5181,
      "Ġstraight": 5182,
      "Ġther": 5183,
      "ĠThomas": 5184,
      "Ġphenomen": 5185,
      "Ġoffered": 5186,
      "Ġfib": 5187,
      "Ġlic": 5188,
      "Ġindicate": 5189,
      "Ġcertainly": 5190,
      "-r": 5191,
      "Ġkinds": 5192,
      "oper": 5193,
      "vis": 5194,
      "inger": 5195,
      "Ġsector": 5196,
      "Sp": 5197,
      "ĠLou": 5198,
      "ĠArab": 5199,
      "Ġextent": 5200,
      "Ġfort": 5201,
      "Ġtaught": 5202,
      "ulating": 5203,
      "Ġsubjects": 5204,
      "ĠMart": 5205,
      "Ġforced": 5206,
      "Ġconsequences": 5207,
      "From": 5208,
      "olute": 5209,
      "Ġbrief": 5210,
      "Ġlargely": 5211,
      "ĠMr": 5212,
      "ags": 5213,
      "Ġwonder": 5214,
      "Ġremained": 5215,
      "ĠVirgin": 5216,
      "rapy": 5217,
      "Ġfoss": 5218,
      "espite": 5219,
      "Ġmuscles": 5220,
      "Ġmorning": 5221,
      "Ġvital": 5222,
      "ĠCivil": 5223,
      "ĠNASA": 5224,
      "Ġexistence": 5225,
      "Ġoccurred": 5226,
      "Ġarmy": 5227,
      "Ġcollected": 5228,
      "Ġidentity": 5229,
      "Ġtechnical": 5230,
      "atric": 5231,
      "Ġadvance": 5232,
      "ague": 5233,
      "aturally": 5234,
      "ĠHol": 5235,
      "AD": 5236,
      "Most": 5237,
      "Ġshowing": 5238,
      "ĠSal": 5239,
      "Ġcoord": 5240,
      "Ġwaters": 5241,
      "-D": 5242,
      "Ġcrucial": 5243,
      "Ġdigest": 5244,
      "Ġnutrients": 5245,
      "Ġoperating": 5246,
      "Ġuns": 5247,
      "arrow": 5248,
      "Ġdoll": 5249,
      "Ġkeeping": 5250,
      "ĠSen": 5251,
      "Ġcenturies": 5252,
      "Ġecosystem": 5253,
      "Ġbird": 5254,
      "Ġspecifically": 5255,
      "roke": 5256,
      "ossible": 5257,
      "Ġlov": 5258,
      "rier": 5259,
      "ĠDise": 5260,
      "eria": 5261,
      "Ġflowers": 5262,
      "Ġeast": 5263,
      "Ġcareer": 5264,
      "Ġperman": 5265,
      "Ġspend": 5266,
      "Ġimpacts": 5267,
      "Ġiniti": 5268,
      "Ġhyper": 5269,
      "Ġstone": 5270,
      "Ġshar": 5271,
      "going": 5272,
      "Ġattacks": 5273,
      "Ġbright": 5274,
      "ĠCam": 5275,
      "Ġfaster": 5276,
      "-re": 5277,
      "Ġmetab": 5278,
      "Ġemergency": 5279,
      "Ġpros": 5280,
      "inent": 5281,
      "Ġquar": 5282,
      "AP": 5283,
      "Ġrecy": 5284,
      "Ġparticles": 5285,
      "Ġroll": 5286,
      "inn": 5287,
      "Ġsalt": 5288,
      "ĠFurther": 5289,
      "Ġresist": 5290,
      "ĠDist": 5291,
      "ĠNews": 5292,
      "Ġresponsibility": 5293,
      "ĠIr": 5294,
      "ĠEnergy": 5295,
      "ĠClass": 5296,
      "tion": 5297,
      "osen": 5298,
      "Ġtopics": 5299,
      "Ġfelt": 5300,
      "Ġraised": 5301,
      "Ġkn": 5302,
      "Ġadvice": 5303,
      "Ġsettle": 5304,
      "RO": 5305,
      "âĢĿĊ": 5306,
      "-sp": 5307,
      "ĠFranc": 5308,
      "ework": 5309,
      "Ġletters": 5310,
      "ĠLatin": 5311,
      "Ġdespite": 5312,
      "rian": 5313,
      "inding": 5314,
      "ado": 5315,
      "olars": 5316,
      "Ġdouble": 5317,
      "ĠMuslim": 5318,
      "Ġleader": 5319,
      "ĠArmy": 5320,
      "EL": 5321,
      "ancing": 5322,
      "ipped": 5323,
      "Ġsyn": 5324,
      "ĠAtl": 5325,
      "Ġpurs": 5326,
      "ĠMedicine": 5327,
      "ĠMet": 5328,
      "Ġnations": 5329,
      "Ġbill": 5330,
      "Ġwife": 5331,
      "Ġsurrounding": 5332,
      "ras": 5333,
      "ĠDef": 5334,
      "ĠBay": 5335,
      "Ġproteins": 5336,
      "Ġoral": 5337,
      "Ġmeasured": 5338,
      "ĠSpace": 5339,
      "Ġ*": 5340,
      "la": 5341,
      "Ġvast": 5342,
      "Ġdomestic": 5343,
      "Ġcharacters": 5344,
      "Ġnerv": 5345,
      "ĠBen": 5346,
      "Ġaffects": 5347,
      "Ġclim": 5348,
      "Ġgrand": 5349,
      "omy": 5350,
      "Ġexternal": 5351,
      "Ġliver": 5352,
      "Ġexcellent": 5353,
      "Ġdetailed": 5354,
      "Ġvehicle": 5355,
      "US": 5356,
      "Ġgoods": 5357,
      "Ġrefers": 5358,
      "ĠCle": 5359,
      "itness": 5360,
      "Ġperspective": 5361,
      "ĠCommission": 5362,
      "Ġexplains": 5363,
      "Ġmoist": 5364,
      "othing": 5365,
      "Ġsche": 5366,
      "Ġcert": 5367,
      "Ġmonitoring": 5368,
      "Ġperiods": 5369,
      "ĠMedical": 5370,
      "unk": 5371,
      "Ġmotion": 5372,
      "inant": 5373,
      "Ġvoice": 5374,
      "rastructure": 5375,
      "anges": 5376,
      "Ġcomment": 5377,
      "nel": 5378,
      "Ġmaximum": 5379,
      "oo": 5380,
      "ĠFre": 5381,
      "Ġtested": 5382,
      "Ġsounds": 5383,
      "ĠSecond": 5384,
      "Ġtro": 5385,
      "ĠDirect": 5386,
      "what": 5387,
      "Ġcomponent": 5388,
      "ails": 5389,
      "Ġhaz": 5390,
      "Ġfamiliar": 5391,
      "46": 5392,
      "Ġagricultural": 5393,
      "Ġonto": 5394,
      "ache": 5395,
      "oughly": 5396,
      "Ġsuggested": 5397,
      "enses": 5398,
      "BC": 5399,
      "Ġaren": 5400,
      "Ġdiam": 5401,
      "roid": 5402,
      "Ġtypical": 5403,
      "Ġcognitive": 5404,
      "99": 5405,
      "Go": 5406,
      "con": 5407,
      "'ve": 5408,
      "ael": 5409,
      "li": 5410,
      "Ġblog": 5411,
      "Ġotherwise": 5412,
      "ĠSom": 5413,
      "Ġvent": 5414,
      "osa": 5415,
      "Ġnit": 5416,
      "Ġkil": 5417,
      "Ġaccurate": 5418,
      "Ġplayed": 5419,
      "Ġju": 5420,
      "183": 5421,
      "Ġsin": 5422,
      "Ġmere": 5423,
      "400": 5424,
      "Ġcrops": 5425,
      "Ġdivided": 5426,
      "Ġimmig": 5427,
      "ĠLife": 5428,
      "Ġbiological": 5429,
      "Ġfundamental": 5430,
      "verty": 5431,
      "Ġgreatest": 5432,
      "Ġexplan": 5433,
      "iced": 5434,
      "ĠBoth": 5435,
      "Ġfacilities": 5436,
      "ificial": 5437,
      "Ġcontrolled": 5438,
      "ĠTechnology": 5439,
      "Ġsatis": 5440,
      "cript": 5441,
      "No": 5442,
      "hi": 5443,
      "Ab": 5444,
      "Ġpoverty": 5445,
      "Ġsend": 5446,
      "Ġpotentially": 5447,
      "igenous": 5448,
      "Ġhelpful": 5449,
      "Ġslightly": 5450,
      "Ġthin": 5451,
      "Ġspl": 5452,
      "Ġexplained": 5453,
      "Ġcrisis": 5454,
      "47": 5455,
      "Ġfif": 5456,
      "Ġlinks": 5457,
      "CO": 5458,
      "Ġgirls": 5459,
      "Ġfluid": 5460,
      "umin": 5461,
      "ĠAN": 5462,
      "Ġlose": 5463,
      "-P": 5464,
      "Ġproport": 5465,
      "Ġsubsequ": 5466,
      "Ġtrial": 5467,
      "Ġincreasingly": 5468,
      "Ġflat": 5469,
      "ĠLearning": 5470,
      "ĠData": 5471,
      "ĠBible": 5472,
      "Ġinterests": 5473,
      "ĠQue": 5474,
      "athy": 5475,
      "Ġfloor": 5476,
      "aks": 5477,
      "ĠMass": 5478,
      "osc": 5479,
      "ĠElect": 5480,
      "Ġvalid": 5481,
      "ĠMil": 5482,
      "ht": 5483,
      "Ġimmun": 5484,
      "Ġstudied": 5485,
      "Ġpaint": 5486,
      "resents": 5487,
      "RI": 5488,
      "Ġfruits": 5489,
      "Ġsubstant": 5490,
      "Ġrail": 5491,
      "Ġdepends": 5492,
      "Ġwestern": 5493,
      "Ġkm": 5494,
      "pen": 5495,
      "ĠJud": 5496,
      "ION": 5497,
      "ensus": 5498,
      "Ġapparent": 5499,
      "Ġsnow": 5500,
      "stood": 5501,
      "Ġgrown": 5502,
      "Ġpolice": 5503,
      "Ġphone": 5504,
      "ĠFoundation": 5505,
      "Ġsmart": 5506,
      "Ġharvest": 5507,
      "Ġinvestment": 5508,
      "Ġtips": 5509,
      "Cl": 5510,
      "Ġchann": 5511,
      "Ġneut": 5512,
      "Ġinstruction": 5513,
      "Ġfollows": 5514,
      "Ġhappened": 5515,
      "Ġinterview": 5516,
      "ĠBook": 5517,
      "ĠFlor": 5518,
      "Ġtrad": 5519,
      "Ġdepth": 5520,
      "Ġrequest": 5521,
      "Ġstars": 5522,
      "Ġobtained": 5523,
      "Ġrural": 5524,
      "oviet": 5525,
      "Ġintroduction": 5526,
      "Ġpersons": 5527,
      "ĠTwo": 5528,
      "Ġabuse": 5529,
      "Ġsen": 5530,
      "Ġhabitat": 5531,
      "utive": 5532,
      "Ġinstrument": 5533,
      "ompl": 5534,
      "ville": 5535,
      "gal": 5536,
      "ĠPacific": 5537,
      "Ġseg": 5538,
      "Ġroots": 5539,
      "ingly": 5540,
      "Ġstem": 5541,
      "Ġbow": 5542,
      "Ġpregnancy": 5543,
      "Ġdisapp": 5544,
      "ĠBudd": 5545,
      "Ġformat": 5546,
      "Ġcurriculum": 5547,
      "Ġpil": 5548,
      "van": 5549,
      "ĠSou": 5550,
      "Ġthoughts": 5551,
      "Ġwel": 5552,
      "Ġcontinuous": 5553,
      "ĠRobert": 5554,
      "Ġconsists": 5555,
      "Ġelev": 5556,
      "Ġgovernments": 5557,
      "DF": 5558,
      "itage": 5559,
      "Ġofficials": 5560,
      "Ġcontaining": 5561,
      "Ġlooked": 5562,
      "Ġplaying": 5563,
      "ĠBC": 5564,
      "Ġdeliver": 5565,
      "zy": 5566,
      "Ġconvent": 5567,
      "Ġargument": 5568,
      "active": 5569,
      "Ġprices": 5570,
      "Ġhundreds": 5571,
      "Ġdial": 5572,
      "ĠToday": 5573,
      "asure": 5574,
      "ĠUsing": 5575,
      "celer": 5576,
      "Ġconcerned": 5577,
      "Ġlik": 5578,
      "Ġwalls": 5579,
      "hips": 5580,
      "Ġdecrease": 5581,
      "ĠKore": 5582,
      "Ġpray": 5583,
      "Ġprotected": 5584,
      "Ġoutcomes": 5585,
      "name": 5586,
      "Ġreturned": 5587,
      "umber": 5588,
      "ĠLake": 5589,
      "BN": 5590,
      "chers": 5591,
      "Ġrecognized": 5592,
      "Ġfirm": 5593,
      "Ġconcentration": 5594,
      "mp": 5595,
      "Ġtrain": 5596,
      "MS": 5597,
      "Ġprison": 5598,
      "oster": 5599,
      "ĠRussian": 5600,
      "Ġrapidly": 5601,
      "eck": 5602,
      "More": 5603,
      "Ġapproaches": 5604,
      "Ġdeaths": 5605,
      "Ġfeelings": 5606,
      "Ġsuffering": 5607,
      "Ġrepresents": 5608,
      "Ġnarr": 5609,
      "rolog": 5610,
      "isp": 5611,
      "Ġtried": 5612,
      "roc": 5613,
      "Ġstock": 5614,
      "onomy": 5615,
      "Ġclosely": 5616,
      "atever": 5617,
      "ĠTreat": 5618,
      "ye": 5619,
      "Ġdu": 5620,
      "Ġweap": 5621,
      "ĠJose": 5622,
      "ĠSmith": 5623,
      "Ġpig": 5624,
      "Ġvaluable": 5625,
      "âĢĻm": 5626,
      "ĠOut": 5627,
      "Ġfle": 5628,
      "Ġtitle": 5629,
      "Ġemployees": 5630,
      "Ġresidents": 5631,
      "ĠNor": 5632,
      "Ġinternet": 5633,
      "field": 5634,
      "tenance": 5635,
      "Ġappeared": 5636,
      "Ġcardi": 5637,
      "Ġprinciple": 5638,
      "Ġsed": 5639,
      "/s": 5640,
      "ĠInformation": 5641,
      "Ġsyndrome": 5642,
      "yright": 5643,
      "Ġminimum": 5644,
      "Ġdirector": 5645,
      "Ġdut": 5646,
      "ĠMiddle": 5647,
      "Ġappearance": 5648,
      "Another": 5649,
      "Ġlatest": 5650,
      "Ġportion": 5651,
      "Ġvisible": 5652,
      "Ġmedium": 5653,
      "ĠStand": 5654,
      "Ġfiles": 5655,
      "Ġchief": 5656,
      "Ġwear": 5657,
      "inations": 5658,
      "abil": 5659,
      "ascular": 5660,
      "ĠSea": 5661,
      "ĠPsych": 5662,
      "Ġmedications": 5663,
      "that": 5664,
      "Ġselected": 5665,
      "Ġaccompl": 5666,
      "Ġextract": 5667,
      "lers": 5668,
      "Ġgar": 5669,
      "Pl": 5670,
      "Ġrand": 5671,
      "ĠRussia": 5672,
      "ĠAnother": 5673,
      "ĠWomen": 5674,
      "Ġclaims": 5675,
      "ĠCatholic": 5676,
      "Ġviews": 5677,
      "Ġjustice": 5678,
      "Ġdiversity": 5679,
      "icks": 5680,
      "Ġ.Ċ": 5681,
      "Ġpaid": 5682,
      "Ġdiscussed": 5683,
      "Ġprocedures": 5684,
      "Ġcontem": 5685,
      "ĠLand": 5686,
      "ĠCarol": 5687,
      "Ġreform": 5688,
      "Ġwire": 5689,
      "Ġfrag": 5690,
      "Ġrein": 5691,
      "Ġinflammation": 5692,
      "Ġenhance": 5693,
      "Ġassemb": 5694,
      "Ġregularly": 5695,
      "ĠMont": 5696,
      "ĠMicro": 5697,
      "fall": 5698,
      "Ġadding": 5699,
      "Ġgun": 5700,
      "Ġlessons": 5701,
      "ĠCD": 5702,
      "Ġsides": 5703,
      "Ġsatell": 5704,
      "Ġcorrespond": 5705,
      "Ġcircumst": 5706,
      "ĠWind": 5707,
      "TS": 5708,
      "Ġleaving": 5709,
      "Ġconscious": 5710,
      "Ġdriving": 5711,
      "Ġinfected": 5712,
      "Ġbehaviour": 5713,
      "ooth": 5714,
      "right": 5715,
      "ĠGoogle": 5716,
      "oral": 5717,
      "Ġnaturally": 5718,
      "band": 5719,
      "Ġrandom": 5720,
      "racy": 5721,
      "ĠNav": 5722,
      "ĠÎ": 5723,
      "Ġexpensive": 5724,
      "Ġsan": 5725,
      "Ġparam": 5726,
      "Ġinches": 5727,
      "ĠHenry": 5728,
      "Ġband": 5729,
      "Ġhorse": 5730,
      "ĠSupp": 5731,
      "Ġstated": 5732,
      "ĠEngine": 5733,
      "Ġspiritual": 5734,
      "ĠSoviet": 5735,
      "Ġages": 5736,
      "ulin": 5737,
      "cest": 5738,
      "Ġstret": 5739,
      "ario": 5740,
      "ellect": 5741,
      "Ġmoral": 5742,
      "Ġdistingu": 5743,
      "ĠInstead": 5744,
      "Ġknew": 5745,
      "bing": 5746,
      "ING": 5747,
      "ÃŃ": 5748,
      "Ġbusinesses": 5749,
      "Ġmovements": 5750,
      "Ġmobile": 5751,
      "Ġrecovery": 5752,
      "Ġsecure": 5753,
      "Ġalt": 5754,
      "ĠSte": 5755,
      "Ġod": 5756,
      "49": 5757,
      "Ġadvoc": 5758,
      "iled": 5759,
      "anes": 5760,
      "Ġshel": 5761,
      "ĠFam": 5762,
      "Ind": 5763,
      "Ġinfrastructure": 5764,
      "anguage": 5765,
      "Ġsoldiers": 5766,
      "Ġsick": 5767,
      "Ġcouple": 5768,
      "west": 5769,
      "Ġfunding": 5770,
      "ĠCharles": 5771,
      "ĠMake": 5772,
      "ĠEmp": 5773,
      "Ġcolors": 5774,
      "Ġrecognize": 5775,
      "ĠRef": 5776,
      "Ġpump": 5777,
      "Ġdiscovery": 5778,
      "Ġpush": 5779,
      "lar": 5780,
      "alse": 5781,
      "Ġmillions": 5782,
      "Ġsets": 5783,
      "pat": 5784,
      "inet": 5785,
      "Ġingred": 5786,
      "Ġagriculture": 5787,
      "Ġintelligence": 5788,
      "ĠSuch": 5789,
      "ĠMem": 5790,
      "Do": 5791,
      "ota": 5792,
      "Ġsubstance": 5793,
      "Ġdocuments": 5794,
      "ĠDisc": 5795,
      "ĠDel": 5796,
      "Ġrub": 5797,
      "cling": 5798,
      "-se": 5799,
      "bert": 5800,
      "orith": 5801,
      "ĠLike": 5802,
      "ĠTem": 5803,
      "Ġpoet": 5804,
      "Ġcapable": 5805,
      "Ġsecondary": 5806,
      "Ġcorpor": 5807,
      "Ġsuffer": 5808,
      "Ġabsolute": 5809,
      "Ġraise": 5810,
      "Ġprevention": 5811,
      "uke": 5812,
      "bi": 5813,
      "mas": 5814,
      "onst": 5815,
      "esity": 5816,
      "ĠCompany": 5817,
      "Ġexchange": 5818,
      "Ġstages": 5819,
      "42": 5820,
      "Ġleadership": 5821,
      "ĠControl": 5822,
      "Ġ...": 5823,
      "ĠStudies": 5824,
      "rants": 5825,
      "ocratic": 5826,
      "Ġhealthcare": 5827,
      "Ġfacilit": 5828,
      "ava": 5829,
      "HO": 5830,
      "Ġmit": 5831,
      "-day": 5832,
      "Ġchapter": 5833,
      "Ġpref": 5834,
      "agers": 5835,
      "olf": 5836,
      "Ġsensitive": 5837,
      "Ġadequ": 5838,
      "Ġhunt": 5839,
      "Ġallerg": 5840,
      "ĠUp": 5841,
      "plicated": 5842,
      "stream": 5843,
      "Ġtalking": 5844,
      "Ġble": 5845,
      "Ġwave": 5846,
      "Ġprecise": 5847,
      "ĠOx": 5848,
      "Ġlifest": 5849,
      "ĠRights": 5850,
      "Ġaccomp": 5851,
      "Ġmyth": 5852,
      "ĠSaf": 5853,
      "Ġincl": 5854,
      "asp": 5855,
      "Ġdental": 5856,
      "Ġentirely": 5857,
      "Ġphr": 5858,
      "During": 5859,
      "ypes": 5860,
      "Ġpure": 5861,
      "Ġmassive": 5862,
      "osal": 5863,
      "Ġapart": 5864,
      "rem": 5865,
      "Ġunlike": 5866,
      "olve": 5867,
      "ĠHistor": 5868,
      "gl": 5869,
      "Ġparties": 5870,
      "85": 5871,
      "Ġdescribes": 5872,
      "Ġfertil": 5873,
      "cules": 5874,
      "Ġselection": 5875,
      "VID": 5876,
      "Ġprem": 5877,
      "exp": 5878,
      "Ġsteel": 5879,
      "attle": 5880,
      "Ġimpossible": 5881,
      "Ġintake": 5882,
      "Ġvehicles": 5883,
      "Te": 5884,
      "ĠLibrary": 5885,
      "ĠWild": 5886,
      "Ġexperiments": 5887,
      "dden": 5888,
      "Ġrevealed": 5889,
      "Ġcoff": 5890,
      "ĠPC": 5891,
      "rid": 5892,
      "Ġera": 5893,
      "Ġnurs": 5894,
      "Ġcreative": 5895,
      "Ġproducing": 5896,
      "Ġnormally": 5897,
      "ada": 5898,
      "Ġcalls": 5899,
      "Ġbrown": 5900,
      "Ġ<": 5901,
      "idden": 5902,
      "alian": 5903,
      "ka": 5904,
      "Ġtraffic": 5905,
      "ĠNature": 5906,
      "obe": 5907,
      "Ġneighb": 5908,
      "Gen": 5909,
      "ĠEnvironmental": 5910,
      "Ġopinion": 5911,
      "Ġinterf": 5912,
      "asive": 5913,
      "Ġtouch": 5914,
      "-H": 5915,
      "Ġgall": 5916,
      "ston": 5917,
      "Ġlibrary": 5918,
      "Ġminim": 5919,
      "Ġdiverse": 5920,
      "ĠPost": 5921,
      "Ġsuitable": 5922,
      "Ġantibiot": 5923,
      "liam": 5924,
      "Ġwors": 5925,
      "Ġcomputers": 5926,
      "Ġsurvival": 5927,
      "Ġclosed": 5928,
      "Ġnetworks": 5929,
      "Ġmanufacturing": 5930,
      "teries": 5931,
      "ato": 5932,
      "ĠLouis": 5933,
      "Ġdiscrim": 5934,
      "Ġfigures": 5935,
      "ibilities": 5936,
      "Ġlabel": 5937,
      "comp": 5938,
      "Ġformal": 5939,
      "-old": 5940,
      "ĠManagement": 5941,
      "burg": 5942,
      "Ġnarrow": 5943,
      "Ġchain": 5944,
      "olester": 5945,
      "othe": 5946,
      "ĠBur": 5947,
      "Ġrecip": 5948,
      "Ġcomprehensive": 5949,
      "Ġlandscape": 5950,
      "vironments": 5951,
      "Ġdatabase": 5952,
      "Us": 5953,
      "Ġprepare": 5954,
      "Ġpossess": 5955,
      "Ġtun": 5956,
      "Ġinject": 5957,
      "osph": 5958,
      "Ġoriginally": 5959,
      "ĠDiv": 5960,
      "ĠVirginia": 5961,
      "ona": 5962,
      "Ġamb": 5963,
      "ditionally": 5964,
      "Ġunderstood": 5965,
      "Ġroutine": 5966,
      "Ġspeaking": 5967,
      "anged": 5968,
      "Ġgenerate": 5969,
      "abric": 5970,
      "reed": 5971,
      "Ġimproving": 5972,
      "ĠPower": 5973,
      "Ġworldwide": 5974,
      "Ġplays": 5975,
      "Ġpossibly": 5976,
      "ĠSum": 5977,
      "ĠGroup": 5978,
      "Ġadopted": 5979,
      "ĠAp": 5980,
      "Ġflight": 5981,
      "Ġaccepted": 5982,
      "Ġdecline": 5983,
      "ctic": 5984,
      "omach": 5985,
      "Ġmoon": 5986,
      "Ġtransition": 5987,
      "ĠWell": 5988,
      "Dr": 5989,
      "Ġsudden": 5990,
      "-sc": 5991,
      "Ġcars": 5992,
      "Ġsupplement": 5993,
      "erals": 5994,
      "Ġbones": 5995,
      "ett": 5996,
      "Ġstick": 5997,
      "pping": 5998,
      "Ġcandid": 5999,
      "Ġpictures": 6000,
      "Ġvillage": 6001,
      "Ġnan": 6002,
      "Ġindex": 6003,
      "Ġdream": 6004,
      "fl": 6005,
      "Ġmedication": 6006,
      "Ġdistrict": 6007,
      "Ġtoler": 6008,
      "-sh": 6009,
      "Ġlisted": 6010,
      "agues": 6011,
      "Ġguidelines": 6012,
      "Ġopened": 6013,
      "ĠAlex": 6014,
      "Ġmamm": 6015,
      "Ġpossibility": 6016,
      "uilding": 6017,
      "alysis": 6018,
      "Ġregional": 6019,
      "Ġfill": 6020,
      "Ġwarming": 6021,
      "Ġrestrict": 6022,
      "-time": 6023,
      "Ġreaders": 6024,
      "Ġachieved": 6025,
      "ropical": 6026,
      "oto": 6027,
      "organ": 6028,
      "CS": 6029,
      "Ġworse": 6030,
      "Ġdedic": 6031,
      "Ġlatter": 6032,
      "mary": 6033,
      "abits": 6034,
      "aser": 6035,
      "Ġstored": 6036,
      "ĠSl": 6037,
      "merican": 6038,
      "olesterol": 6039,
      "ifies": 6040,
      "Ġtal": 6041,
      "Other": 6042,
      "Ġforests": 6043,
      "ĠScient": 6044,
      "des": 6045,
      "ĠHam": 6046,
      "lements": 6047,
      "Ġanswers": 6048,
      "ĠFlorida": 6049,
      "Ġmarriage": 6050,
      "Ġgather": 6051,
      "time": 6052,
      "Ġhouses": 6053,
      "Ġaw": 6054,
      "ĠBro": 6055,
      "Ġrepeated": 6056,
      "Ġacts": 6057,
      "apping": 6058,
      "Ġengage": 6059,
      "Ġharmful": 6060,
      "Re": 6061,
      "Ġaircraft": 6062,
      "\"Ċ": 6063,
      "Ġbudget": 6064,
      "Ġleaf": 6065,
      "Ġsuc": 6066,
      "Ġadministration": 6067,
      "Ġwildlife": 6068,
      "Ġplate": 6069,
      "Ġimper": 6070,
      "De": 6071,
      "hemical": 6072,
      "ĠOffice": 6073,
      "Ġban": 6074,
      "rors": 6075,
      "Ġstarts": 6076,
      "Ġsolve": 6077,
      "liament": 6078,
      "urd": 6079,
      "Ġabund": 6080,
      "ĠAI": 6081,
      "Ġsports": 6082,
      "Ġwindow": 6083,
      "ĠMo": 6084,
      "ki": 6085,
      "add": 6086,
      "Ġtow": 6087,
      "Ġfell": 6088,
      "Ġdust": 6089,
      "Ġcloud": 6090,
      "Ġpretty": 6091,
      "ait": 6092,
      "Ġmountain": 6093,
      "Ġarms": 6094,
      "ĠFederal": 6095,
      "Ġinjuries": 6096,
      "Ġbeneficial": 6097,
      "-cent": 6098,
      "imer": 6099,
      "ĠKen": 6100,
      "Ġaqu": 6101,
      "Ġdoctors": 6102,
      "Ġjourney": 6103,
      "Ġuniverse": 6104,
      "Ġprofessionals": 6105,
      "ĠBet": 6106,
      "Ġsurvive": 6107,
      "Ġapprec": 6108,
      "ĠTer": 6109,
      "Ġancest": 6110,
      "Ġstruggle": 6111,
      "ĠISBN": 6112,
      "Ġscholars": 6113,
      "Ġtail": 6114,
      "oted": 6115,
      "Ġunless": 6116,
      "ĠPers": 6117,
      "ĠLabor": 6118,
      "Ġaf": 6119,
      "acts": 6120,
      "Ġmaintenance": 6121,
      "Ġagreement": 6122,
      "ĠProfessor": 6123,
      "ĠKnow": 6124,
      "Ġremaining": 6125,
      "41": 6126,
      "Ġcreates": 6127,
      "Ġgenerated": 6128,
      "ĠCare": 6129,
      "Ġaccounts": 6130,
      "throp": 6131,
      "Ġremote": 6132,
      "Ġmuseum": 6133,
      "Ġcultiv": 6134,
      "ĠAtt": 6135,
      "Ġafford": 6136,
      "Ġequival": 6137,
      "ĠIN": 6138,
      "Ġax": 6139,
      "Ġcatch": 6140,
      "iform": 6141,
      "orter": 6142,
      "ini": 6143,
      "-F": 6144,
      "Ġtells": 6145,
      "Ġsurf": 6146,
      "Ġswitch": 6147,
      "ĠConstitution": 6148,
      "Ġchoices": 6149,
      "Ġtwice": 6150,
      "Ġchart": 6151,
      "Ġsweet": 6152,
      "Ġcourses": 6153,
      "ĠTHE": 6154,
      "IL": 6155,
      "ester": 6156,
      "Ġsequence": 6157,
      "ĠReview": 6158,
      "Ġmarine": 6159,
      "Ġmac": 6160,
      "Ġtransmission": 6161,
      "Ġbattery": 6162,
      "Ġobtain": 6163,
      "erent": 6164,
      "Ġhappy": 6165,
      "Ġexpressed": 6166,
      "inder": 6167,
      "anda": 6168,
      "ĠUSA": 6169,
      "Ġdoor": 6170,
      "Ġfilled": 6171,
      "aria": 6172,
      "Ġchildhood": 6173,
      "ĠCommon": 6174,
      "Ġedge": 6175,
      "riting": 6176,
      "Ġalgorith": 6177,
      "nam": 6178,
      "ĠId": 6179,
      "Ġsell": 6180,
      "ĠParis": 6181,
      "Ġdepos": 6182,
      "icians": 6183,
      "Ġtiny": 6184,
      "ĠGood": 6185,
      "Ġextended": 6186,
      "ican": 6187,
      "Ġenvironments": 6188,
      "ansion": 6189,
      "ums": 6190,
      "eer": 6191,
      "Ġassistance": 6192,
      "Ġlands": 6193,
      "ĠCommit": 6194,
      "ogue": 6195,
      "ĠColumb": 6196,
      "Ġdiscipl": 6197,
      "ua": 6198,
      "Ġerror": 6199,
      "orrow": 6200,
      "Ġacceler": 6201,
      "Ġelectronic": 6202,
      "tage": 6203,
      "Ġagencies": 6204,
      "Ġdecade": 6205,
      "ceived": 6206,
      "win": 6207,
      "My": 6208,
      "-be": 6209,
      "Ġconsistent": 6210,
      "point": 6211,
      ".âĢĻ": 6212,
      "Ġstudying": 6213,
      "Ġindeed": 6214,
      "Ġaer": 6215,
      "Ġcircumstances": 6216,
      "Ġwaves": 6217,
      "Ġbio": 6218,
      "Ġgal": 6219,
      "Ġunknown": 6220,
      "ashion": 6221,
      "Ġderived": 6222,
      "Ġseeing": 6223,
      "Ġenable": 6224,
      "Ġneuro": 6225,
      "ĠOF": 6226,
      "Ġwants": 6227,
      "Ġoptim": 6228,
      "Ġoutl": 6229,
      "Ġproduces": 6230,
      "Ġopening": 6231,
      "Ġreject": 6232,
      "Ġlocations": 6233,
      "Ġshell": 6234,
      "Ġsuccessfully": 6235,
      "Ġcomposition": 6236,
      "Ġmolecules": 6237,
      "ĠAny": 6238,
      "ĠProv": 6239,
      "icide": 6240,
      "Ġfailed": 6241,
      "normal": 6242,
      "Ġintellect": 6243,
      "âĢĻ,": 6244,
      "Ġframework": 6245,
      "Ġskill": 6246,
      "ĠAbout": 6247,
      "ĠCanadian": 6248,
      "ĠFe": 6249,
      "ĠExpl": 6250,
      "Ġintervention": 6251,
      "Ġslowly": 6252,
      "cel": 6253,
      "181": 6254,
      "Ġbroken": 6255,
      "-of": 6256,
      "osm": 6257,
      "Ġfoundation": 6258,
      "Ġcopy": 6259,
      "zen": 6260,
      "Ġkit": 6261,
      "Ġdownload": 6262,
      "Ġcolour": 6263,
      "ĠLeg": 6264,
      "Ġpull": 6265,
      "ĠFrank": 6266,
      "Ġlots": 6267,
      "ĠThrough": 6268,
      "Ġtraum": 6269,
      "CT": 6270,
      "ĠPeter": 6271,
      "ĠThose": 6272,
      "ĠNations": 6273,
      "ĠAnn": 6274,
      "Ġwid": 6275,
      "Ġdensity": 6276,
      "luding": 6277,
      "43": 6278,
      "Ġsentence": 6279,
      "Ġtruly": 6280,
      "Ġboost": 6281,
      "Ġthor": 6282,
      "Ġsod": 6283,
      "Ġaudience": 6284,
      "Ġresponses": 6285,
      "ĠJoseph": 6286,
      "arant": 6287,
      "Ġcritic": 6288,
      "Ġopposite": 6289,
      "Ġmechanism": 6290,
      "Ġtroops": 6291,
      "irus": 6292,
      "inity": 6293,
      "under": 6294,
      "ĠStreet": 6295,
      "Ġpapers": 6296,
      "using": 6297,
      "ĠAustralian": 6298,
      "lets": 6299,
      "Ġyield": 6300,
      "UR": 6301,
      "Ġgrav": 6302,
      "Ġdecide": 6303,
      "Ġlaun": 6304,
      "66": 6305,
      "Sc": 6306,
      "ocracy": 6307,
      "Ġdoubt": 6308,
      "inating": 6309,
      "ĠDisease": 6310,
      "Ġgreatly": 6311,
      "down": 6312,
      "ĠMa": 6313,
      "ĠVict": 6314,
      "ivery": 6315,
      "Ġratio": 6316,
      "Ġstomach": 6317,
      "Ġauthorities": 6318,
      "edu": 6319,
      "Ġsignals": 6320,
      "Ġinteraction": 6321,
      ".|Ċ": 6322,
      "Ġdoi": 6323,
      "Ġfixed": 6324,
      "Ġinstitution": 6325,
      "Ġfossil": 6326,
      "ĠIll": 6327,
      "Ġrespir": 6328,
      "Ġflav": 6329,
      "Not": 6330,
      "Ġmarked": 6331,
      "Ġacids": 6332,
      "Read": 6333,
      "ĠGold": 6334,
      "ribed": 6335,
      "eper": 6336,
      "ĠYet": 6337,
      "itative": 6338,
      "Ġmixed": 6339,
      "ĠTor": 6340,
      "-the": 6341,
      "Ġindicates": 6342,
      "Ġinsects": 6343,
      "inction": 6344,
      "hma": 6345,
      "Ġpermanent": 6346,
      "Ġmulti": 6347,
      "gent": 6348,
      "EP": 6349,
      "Ġsimpl": 6350,
      ".A": 6351,
      "Ġvessels": 6352,
      "Ġdescription": 6353,
      "âĢĻd": 6354,
      "Ġsky": 6355,
      "opl": 6356,
      "itudes": 6357,
      "Ġcircuit": 6358,
      "ena": 6359,
      "Ġprotocol": 6360,
      "Ġconsumers": 6361,
      "stein": 6362,
      "Ġraw": 6363,
      "Ġunp": 6364,
      "Ġmanaged": 6365,
      "Ġemotions": 6366,
      "Ġbear": 6367,
      "Ġdifficulty": 6368,
      "ront": 6369,
      "ey": 6370,
      "Ġwitness": 6371,
      "ĠGlobal": 6372,
      "Ġultimately": 6373,
      "Ġwish": 6374,
      "ĠDesign": 6375,
      "Ã¼": 6376,
      "ĠâĢ¢": 6377,
      "ĠLab": 6378,
      "Ġfasc": 6379,
      "Ġcultures": 6380,
      "ĠBre": 6381,
      "Ġreplaced": 6382,
      "ĠHaw": 6383,
      "ctive": 6384,
      "Ġcompr": 6385,
      "Ġcalcium": 6386,
      "Ġprincip": 6387,
      "Ġcarefully": 6388,
      "ĠRad": 6389,
      "Ġcorn": 6390,
      "Ġcomparison": 6391,
      "Ġlaboratory": 6392,
      "-L": 6393,
      "inking": 6394,
      "orld": 6395,
      "Ġorganized": 6396,
      "ĠLong": 6397,
      "igation": 6398,
      "Ġ>": 6399,
      "Ġfly": 6400,
      "ifications": 6401,
      "En": 6402,
      "Ġrepresented": 6403,
      "Since": 6404,
      "Figure": 6405,
      "Ġwalking": 6406,
      "ĠOnly": 6407,
      "Ġimmediate": 6408,
      "Ġinhib": 6409,
      "ĠDan": 6410,
      "kes": 6411,
      "ĠRome": 6412,
      "Ġfiber": 6413,
      "wo": 6414,
      "Ġhus": 6415,
      "Ġlifestyle": 6416,
      "Ġhighlight": 6417,
      "opy": 6418,
      "Ġphilosophy": 6419,
      "âĢĺ": 6420,
      "Ġethnic": 6421,
      "Ġreader": 6422,
      "âĢľThe": 6423,
      "Ġcart": 6424,
      "Ġconventional": 6425,
      "gans": 6426,
      "Ġdedicated": 6427,
      "Ġgluc": 6428,
      "Ġsight": 6429,
      "ĠEss": 6430,
      "-R": 6431,
      "ny": 6432,
      "ĠReport": 6433,
      "Ġdebate": 6434,
      "sis": 6435,
      "ĠStep": 6436,
      "abul": 6437,
      "182": 6438,
      "Ġacknow": 6439,
      "Ġprol": 6440,
      "Ġshift": 6441,
      "Ġnewsp": 6442,
      "usal": 6443,
      "izer": 6444,
      "Ġremark": 6445,
      "Stud": 6446,
      "reland": 6447,
      "zil": 6448,
      "Ġthousand": 6449,
      "rine": 6450,
      "umes": 6451,
      "Ġcoffee": 6452,
      "Ġattend": 6453,
      "yles": 6454,
      "Ġaccum": 6455,
      "Ġdaughter": 6456,
      "Ġnine": 6457,
      "ĠClin": 6458,
      "ĠHall": 6459,
      "Ġimplementation": 6460,
      "Ġpreval": 6461,
      "tic": 6462,
      "Ġhandle": 6463,
      "Ġbiggest": 6464,
      "Ġsupporting": 6465,
      "Ġvoc": 6466,
      "Ġcutting": 6467,
      "Ġwriter": 6468,
      "Ġuniversity": 6469,
      "ĠKh": 6470,
      "ĠSouthern": 6471,
      "ups": 6472,
      "Ġdiox": 6473,
      "Ġmild": 6474,
      "Ġhero": 6475,
      "agon": 6476,
      "Ġunable": 6477,
      "gra": 6478,
      "Ġdesire": 6479,
      "Ġregulations": 6480,
      "Ġmachines": 6481,
      "Ġwww": 6482,
      "ĠStat": 6483,
      "flow": 6484,
      "Ġnecessarily": 6485,
      "Ġnoise": 6486,
      "icago": 6487,
      "Ġcholesterol": 6488,
      "Ġlimits": 6489,
      "ictionary": 6490,
      "ĠExp": 6491,
      "hist": 6492,
      "Ġbrand": 6493,
      "ints": 6494,
      "Ġregul": 6495,
      "Ġconstitution": 6496,
      "05": 6497,
      "Ġelectron": 6498,
      "Ġyounger": 6499,
      "Ġpron": 6500,
      "ymph": 6501,
      "Ġfewer": 6502,
      "Ġpersist": 6503,
      "zed": 6504,
      "Ġmagnetic": 6505,
      "Ġcloser": 6506,
      "Ġdestroyed": 6507,
      "aped": 6508,
      "atal": 6509,
      "Ġdent": 6510,
      "ĠExper": 6511,
      "then": 6512,
      "Ġpup": 6513,
      "Ġbreathing": 6514,
      "tering": 6515,
      "Ġsmoking": 6516,
      "ĠPub": 6517,
      "Ġreserv": 6518,
      "ĠCOVID": 6519,
      "Ġchosen": 6520,
      "Ġhabits": 6521,
      "ĠWhe": 6522,
      "Ġgone": 6523,
      "rating": 6524,
      "ella": 6525,
      "Ġarrived": 6526,
      "Ġdin": 6527,
      "ĠBank": 6528,
      "Ġinner": 6529,
      "Ġnerve": 6530,
      "from": 6531,
      "Ġpurchase": 6532,
      "Ġtea": 6533,
      "Ġfabric": 6534,
      "phone": 6535,
      "sey": 6536,
      "ĠMad": 6537,
      "Ġarchitecture": 6538,
      "ĠNatural": 6539,
      "ocy": 6540,
      "ipping": 6541,
      "ĠSk": 6542,
      "elled": 6543,
      "arn": 6544,
      "Ġcommunicate": 6545,
      "ĠIP": 6546,
      "Ġends": 6547,
      "Ġstands": 6548,
      "Ġfighting": 6549,
      "ĠOcean": 6550,
      "ml": 6551,
      "Ġroof": 6552,
      "Ġunderlying": 6553,
      "ĠCult": 6554,
      "Ġparalle": 6555,
      "01": 6556,
      "uts": 6557,
      "earchers": 6558,
      "ribe": 6559,
      "Con": 6560,
      "Ġalle": 6561,
      "Ġconcrete": 6562,
      "Ġrow": 6563,
      "ĠRevolution": 6564,
      "Ġsharing": 6565,
      "Ġoverl": 6566,
      "Ġevaluation": 6567,
      "Ġlisten": 6568,
      "Ġexists": 6569,
      "120": 6570,
      ".n": 6571,
      "riers": 6572,
      "LE": 6573,
      "ĠForm": 6574,
      "ĠExt": 6575,
      "Ġjoin": 6576,
      "ĠGet": 6577,
      "Ġfounded": 6578,
      "Ġmarried": 6579,
      "Ġcolleagues": 6580,
      "bridge": 6581,
      "Ġfeeding": 6582,
      "Ġobst": 6583,
      "Ġsupports": 6584,
      "ĠCa": 6585,
      "ĠAdd": 6586,
      "cher": 6587,
      "Ġneighbor": 6588,
      "stract": 6589,
      "Ġunus": 6590,
      "ĠIreland": 6591,
      "fortunately": 6592,
      "Ġneck": 6593,
      "rd": 6594,
      "Ġimprovement": 6595,
      "Ġmechanisms": 6596,
      "orous": 6597,
      "irty": 6598,
      "Ġstanding": 6599,
      "ĠPM": 6600,
      "ĠCommittee": 6601,
      "ĠItaly": 6602,
      "Ġclust": 6603,
[...]
